000000010000000000
000000010000010000
000000010000100000
000000010000110001
000000010001000010
000000010001010011
000000010001100100
000000010001110110
000000010010001000
000000010010011010
000000010010101101
000000010011000000
000000010011010011
000000010011100110
000000010011111010
000000010100001110
000000010100100010
000000010100110111
000000010101001100
000000010101100001
000000010101110111
000000010110001101
000000010110100100
000000010110111010
000000010111010001
000000010111101001
000000011000000001
000000011000011001
000000011000110010
000000011001001010
000000011001100100
000000011001111110
000000011010011000
000000011010110010
000000011011001101
000000011011101001
000000011100000101
000000011100100001
000000011100111110
000000011101011011
000000011101111001
000000011110010111
000000011110110101
000000011111010100
000000011111110100
000000100000010100
000000100000110101
000000100001010110
000000100001110111
000000100010011001
000000100010111100
000000100011011111
000000100100000011
000000100100100111
000000100101001100
000000100101110010
000000100110011000
000000100110111111
000000100111100110
000000101000001110
000000101000110110
000000101001100000
000000101010001001
000000101010110100
000000101011011111
000000101100001011
000000101100110111
000000101101100101
000000101110010011
000000101111000001
000000101111110001
000000110000100001
000000110001010010
000000110010000011
000000110010110110
000000110011101001
000000110100011101
000000110101010010
000000110110001000
000000110110111110
000000110111110110
000000111000101110
000000111001100111
000000111010100001
000000111011011100
000000111100011000
000000111101010101
000000111110010011
000000111111010001
000001000000010001
000001000001010010
000001000010010100
000001000011010111
000001000100011011
000001000101100000
000001000110100110
000001000111101101
000001001000110101
000001001001111110
000001001011001001
000001001100010101
000001001101100010
000001001110110000
000001001111111111
000001010001010000
000001010010100010
000001010011110101
000001010101001001
000001010110011111
000001010111110110
000001011001001111
000001011010101001
000001011100000100
000001011101100001
000001011110111111
000001100000011111
000001100010000000
000001100011100011
000001100101000111
000001100110101101
000001101000010101
000001101001111110
000001101011101001
000001101101010101
000001101111000011
000001110000110011
000001110010100101
000001110100011001
000001110110001110
000001111000000101
000001111001111110
000001111011111001
000001111101110110
000001111111110101
000010000001110110
000010000011111000
000010000101111101
000010001000000100
000010001010001110
000010001100011001
000010001110100110
000010010000110110
000010010011001000
000010010101011100
000010010111110011
000010011010001100
000010011100100111
000010011111000101
000010100001100110
000010100100001000
000010100110101110
000010101001010110
000010101100000001
000010101110101110
000010110001011110
000010110100010001
000010110111000111
000010111001111111
000010111100111011
000010111111111001
000011000010111010
000011000101111111
000011001001000110
000011001100010001
000011001111011111
000011010010110000
000011010110000100
000011011001011100
000011011100110111
000011100000010110
000011100011111000
000011100111011110
000011101011000111
000011101110110100
000011110010100101
000011110110011001
000011111010010010
000011111110001110
000100000010001110
000100000110010010
000100001010011011
000100001110100111
000100010010111000
000100010111001101
000100011011100110
000100100000000100
000100100100100111
000100101001001101
000100101101111001
000100110010101001
000100110111011110
000100111100011000
000101000001010111
000101000110011011
000101001011100100
000101010000110010
000101010110000110
000101011011011110
000101100000111101
000101100110100000
000101101100001010
000101110001111001
000101110111101101
000101111101101000
000110000011101001
000110001001101111
000110001111111100
000110010110001111
000110011100101001
000110100011001001
000110101001101111
000110110000011100
000110110111010000
000110111110001011
000111000101001100
000111001100010101
000111010011100101
000111011010111100
000111100010011011
000111101010000001
000111110001101111
000111111001100101
001000000001100010
001000001001101000
001000010001110110
001000011010001100
001000100010101010
001000101011010001
001000110100000001
001000111100111001
001001000101111011
001001001111000101
001001011000011001
001001100001110110
001001101011011101
001001110101001101
001001111111000111
001010001001001011
001010010011011001
001010011101110010
001010101000010101
001010110011000011
001010111101111011
001011001000111111
001011010100001101
001011011111100111
001011101011001101
001011110110111110
001100000010111011
001100001111000100
001100011011011001
001100100111111010
001100110100101001
001101000001100100
001101001110101100
001101011100000001
001101101001100100
001101110111010100
001110000101010011
001110010011011111
001110100001111010
001110110000100011
001110111111011011
001111001110100010
001111011101111000
001111101101011110
001111111101010011
010000001101011000
010000011101101110
010000101110010100
010000111111001011
010001010000010010
010001100001101011
010001110011010110
010010000101010010
010010010111100001
010010101010000001
010010111100110101
010011001111111011
010011100011010101
010011110111000010
010100001011000011
010100011111011000
010100110100000010
010101001001000000
010101011110010100
010101110011111101
010110001001111100
010110100000010001
010110110110111101
010111001101111111
010111100101011001
010111111101001010
011000010101010011
011000101101110101
011001000110101111
011001100000000010
011001111001101111
011010010011110110
011010101110010111
011011001001010011
011011100100101010
011100000000011100
011100011100101011
011100111001010110
011101010110011110
011101110100000011
011110010010000110
011110110000100111
011111001111100111
011111101111000111
100000001111000110
100000101111100101
100001010000100101
100001110010000110
100010010100001001
100010110110101111
100011011001110111
100011111101100011
100100100001110010
100101000110100111
100101101100000000
100110010001111111
100110111000100100
100111011111110000
101000000111100100
101000101111111111
101001011001000100
101010000010110010
101010101101001010
101011011000001100
101100000011111010
101100110000010100
101101011101011011
101110001011010000
101110111001110010
101111101001000011
110000011001000100
110001001001110110
110001111011011000
110010101101101101
110011100000110100
110100010100101111
110101001001011110
110101111111000010
110110110101011100
110111101100101101
111000100100110110
111001011101110111
111010010111110010
111011010010100111
111100001110010111
111101001011000100
111110001000101110
111111000111010110
111111111111111111
111111111111111111
111111111111111111
111111111111111111
111111111111111111
111111111111111111
111111111111111111
111111111111111111
111111111111111111
111111111111111111
111111111111111111
111111111111111111
111111111111111111
111111111111111111
111111111111111111
111111111111111111
111111111111111111
111111111111111111
111111111111111111
111111111111111111
111111111111111111
111111111111111111
111111111111111111
111111111111111111
111111111111111111
111111111111111111
111111111111111111
111111111111111111
111111111111111111
111111111111111111
111111111111111111
111111111111111111
111111111111111111
111111111111111111
111111111111111111
111111111111111111
111111111111111111
111111111111111111
111111111111111111
111111111111111111
111111111111111111
111111111111111111
111111111111111111
111111111111111111
111111111111111111
111111111111111111
111111111111111111
111111111111111111
111111111111111111
111111111111111111
111111111111111111
111111111111111111
111111111111111111
111111111111111111
111111111111111111
111111111111111111
111111111111111111
111111111111111111
111111111111111111
111111111111111111
111111111111111111
111111111111111111
111111111111111111
111111111111111111
111111111111111111
111111111111111111
111111111111111111
111111111111111111
111111111111111111
111111111111111111
111111111111111111
111111111111111111
111111111111111111
111111111111111111
111111111111111111
111111111111111111
111111111111111111
111111111111111111
111111111111111111
111111111111111111
111111111111111111
111111111111111111
111111111111111111
111111111111111111
111111111111111111
111111111111111111
111111111111111111
111111111111111111
111111111111111111
111111111111111111
111111111111111111
111111111111111111
111111111111111111
111111111111111111
111111111111111111
111111111111111111
111111111111111111
111111111111111111
111111111111111111
111111111111111111
111111111111111111
111111111111111111
111111111111111111
111111111111111111
111111111111111111
111111111111111111
111111111111111111
111111111111111111
111111111111111111
111111111111111111
111111111111111111
111111111111111111
111111111111111111
111111111111111111
111111111111111111
111111111111111111
111111111111111111
111111111111111111
111111111111111111
111111111111111111
111111111111111111
111111111111111111
111111111111111111
111111111111111111
111111111111111111
111111111111111111
111111111111111111
111111111111111111
111111111111111111
111111111111111111
111111111111111111
111111111111111111
111111111111111111
111111111111111111
111111111111111111
111111111111111111
111111111111111111
111111111111111111
111111111111111111
111111111111111111
111111111111111111
111111111111111111
111111111111111111
111111111111111111
111111111111111111
111111111111111111
111111111111111111
111111111111111111
111111111111111111
111111111111111111
111111111111111111
111111111111111111
111111111111111111
111111111111111111
111111111111111111
111111111111111111
111111111111111111
000000000000000000
000000000000000000
000000000000000000
000000000000000000
000000000000000000
000000000000000000
000000000000000000
000000000000000000
000000000000000000
000000000000000000
000000000000000000
000000000000000000
000000000000000000
000000000000000000
000000000000000000
000000000000000000
000000000000000000
000000000000000000
000000000000000000
000000000000000000
000000000000000000
000000000000000000
000000000000000000
000000000000000000
000000000000000000
000000000000000000
000000000000000000
000000000000000000
000000000000000000
000000000000000000
000000000000000000
000000000000000000
000000000000000000
000000000000000000
000000000000000000
000000000000000000
000000000000000000
000000000000000000
000000000000000000
000000000000000000
000000000000000000
000000000000000000
000000000000000000
000000000000000000
000000000000000000
000000000000000000
000000000000000000
000000000000000000
000000000000000000
000000000000000000
000000000000000000
000000000000000000
000000000000000000
000000000000000000
000000000000000000
000000000000000000
000000000000000000
000000000000000000
000000000000000000
000000000000000000
000000000000000000
000000000000000000
000000000000000000
000000000000000000
000000000000000000
000000000000000000
000000000000000000
000000000000000000
000000000000000000
000000000000000001
000000000000000001
000000000000000001
000000000000000001
000000000000000001
000000000000000001
000000000000000001
000000000000000001
000000000000000001
000000000000000001
000000000000000001
000000000000000001
000000000000000001
000000000000000001
000000000000000001
000000000000000001
000000000000000001
000000000000000001
000000000000000001
000000000000000001
000000000000000001
000000000000000001
000000000000000001
000000000000000001
000000000000000001
000000000000000001
000000000000000001
000000000000000001
000000000000000001
000000000000000001
000000000000000001
000000000000000001
000000000000000001
000000000000000001
000000000000000001
000000000000000001
000000000000000001
000000000000000001
000000000000000001
000000000000000001
000000000000000001
000000000000000001
000000000000000001
000000000000000001
000000000000000010
000000000000000010
000000000000000010
000000000000000010
000000000000000010
000000000000000010
000000000000000010
000000000000000010
000000000000000010
000000000000000010
000000000000000010
000000000000000010
000000000000000010
000000000000000010
000000000000000010
000000000000000010
000000000000000010
000000000000000010
000000000000000010
000000000000000010
000000000000000010
000000000000000010
000000000000000010
000000000000000010
000000000000000010
000000000000000010
000000000000000011
000000000000000011
000000000000000011
000000000000000011
000000000000000011
000000000000000011
000000000000000011
000000000000000011
000000000000000011
000000000000000011
000000000000000011
000000000000000011
000000000000000011
000000000000000011
000000000000000011
000000000000000011
000000000000000011
000000000000000011
000000000000000011
000000000000000100
000000000000000100
000000000000000100
000000000000000100
000000000000000100
000000000000000100
000000000000000100
000000000000000100
000000000000000100
000000000000000100
000000000000000100
000000000000000100
000000000000000100
000000000000000100
000000000000000101
000000000000000101
000000000000000101
000000000000000101
000000000000000101
000000000000000101
000000000000000101
000000000000000101
000000000000000101
000000000000000101
000000000000000101
000000000000000101
000000000000000110
000000000000000110
000000000000000110
000000000000000110
000000000000000110
000000000000000110
000000000000000110
000000000000000110
000000000000000110
000000000000000111
000000000000000111
000000000000000111
000000000000000111
000000000000000111
000000000000000111
000000000000000111
000000000000000111
000000000000000111
000000000000001000
000000000000001000
000000000000001000
000000000000001000
000000000000001000
000000000000001000
000000000000001000
000000000000001000
000000000000001001
000000000000001001
000000000000001001
000000000000001001
000000000000001001
000000000000001001
000000000000001010
000000000000001010
000000000000001010
000000000000001010
000000000000001010
000000000000001010
000000000000001011
000000000000001011
000000000000001011
000000000000001011
000000000000001011
000000000000001011
000000000000001100
000000000000001100
000000000000001100
000000000000001100
000000000000001100
000000000000001101
000000000000001101
000000000000001101
000000000000001101
000000000000001101
000000000000001110
000000000000001110
000000000000001110
000000000000001110
000000000000001111
000000000000001111
000000000000001111
000000000000001111
000000000000010000
000000000000010000
000000000000010000
000000000000010000
000000000000010001
000000000000010001
000000000000010001
000000000000010001
000000000000010010
000000000000010010
000000000000010010
000000000000010011
000000000000010011
000000000000010011
000000000000010011
000000000000010100
000000000000010100
000000000000010100
000000000000010101
000000000000010101
000000000000010101
000000000000010110
000000000000010110
000000000000010110
000000000000010111
000000000000010111
000000000000011000
000000000000011000
000000000000011000
000000000000011001
000000000000011001
000000000000011010
000000000000011010
000000000000011010
000000000000011011
000000000000011011
000000000000011100
000000000000011100
000000000000011101
000000000000011101
000000000000011101
000000000000011110
000000000000011110
000000000000011111
000000000000011111
000000000000100000
000000000000100000
000000000000100001
000000000000100001
000000000000100010
000000000000100011
000000000000100011
000000000000100100
000000000000100100
000000000000100101
000000000000100101
000000000000100110
000000000000100111
000000000000100111
000000000000101000
000000000000101000
000000000000101001
000000000000101010
000000000000101010
000000000000101011
000000000000101100
000000000000101100
000000000000101101
000000000000101110
000000000000101111
000000000000101111
000000000000110000
000000000000110001
000000000000110010
000000000000110010
000000000000110011
000000000000110100
000000000000110101
000000000000110110
000000000000110111
000000000000110111
000000000000111000
000000000000111001
000000000000111010
000000000000111011
000000000000111100
000000000000111101
000000000000111110
000000000000111111
000000000001000000
000000000001000001
000000000001000010
000000000001000011
000000000001000100
000000000001000101
000000000001000110
000000000001000111
000000000001001001
000000000001001010
000000000001001011
000000000001001100
000000000001001101
000000000001001110
000000000001010000
000000000001010001
000000000001010010
000000000001010100
000000000001010101
000000000001010110
000000000001011000
000000000001011001
000000000001011010
000000000001011100
000000000001011101
000000000001011111
000000000001100000
000000000001100010
000000000001100011
000000000001100101
000000000001100110
000000000001101000
000000000001101010
000000000001101011
000000000001101101
000000000001101111
000000000001110001
000000000001110010
000000000001110100
000000000001110110
000000000001111000
000000000001111010
000000000001111100
000000000001111110
000000000010000000
000000000010000010
000000000010000100
000000000010000110
000000000010001000
000000000010001010
000000000010001100
000000000010001110
000000000010010001
000000000010010011
000000000010010101
000000000010011000
000000000010011010
000000000010011101
000000000010011111
000000000010100010
000000000010100100
000000000010100111
000000000010101001
000000000010101100
000000000010101111
000000000010110001
000000000010110100
000000000010110111
000000000010111010
000000000010111101
000000000011000000
000000000011000011
000000000011000110
000000000011001001
000000000011001100
000000000011010000
000000000011010011
000000000011010110
000000000011011010
000000000011011101
000000000011100000
000000000011100100
000000000011101000
000000000011101011
000000000011101111
000000000011110011
000000000011110111
000000000011111010
000000000011111110
000000000100000010
000000000100000110
000000000100001011
000000000100001111
000000000100010011
000000000100010111
000000000100011100
000000000100100000
000000000100100101
000000000100101010
000000000100101110
000000000100110011
000000000100111000
000000000100111101
000000000101000010
000000000101000111
000000000101001100
000000000101010001
000000000101010110
000000000101011100
000000000101100001
000000000101100111
000000000101101101
000000000101110010
000000000101111000
000000000101111110
000000000110000100
000000000110001010
000000000110010001
000000000110010111
000000000110011101
000000000110100100
000000000110101010
000000000110110001
000000000110111000
000000000110111111
000000000111000110
000000000111001101
000000000111010100
000000000111011100
000000000111100011
000000000111101011
000000000111110011
000000000111111010
000000001000000010
000000001000001011
000000001000010011
000000001000011011
000000001000100100
000000001000101100
000000001000110101
000000001000111110
000000001001000111
000000001001010000
000000001001011001
000000001001100011
000000001001101101
000000001001110110
000000001010000000
000000001010001010
000000001010010101
000000001010011111
000000001010101010
000000001010110100
000000001010111111
000000001011001010
000000001011010110
000000001011100001
000000001011101101
000000001011111000
000000001100000100
000000001100010001
000000001100011101
000000001100101010
000000001100110110
000000001101000011
000000001101010000
000000001101011110
000000001101101011
000000001101111001
000000001110000111
000000001110010101
000000001110100100
000000001110110011
000000001111000001
000000001111010001
000000001111100000
000000001111110000