100000000000000000
011111100000001111
011111000000111111
011110100010001101
011110000011111010
011101100110000101
011101001000101110
011100101011110100
011100001111010110
011011110011010101
011011010111101111
011010111100100101
011010100001110110
011010000111100001
011001101101100111
011001010100000110
011000111010111110
011000100010010000
011000001001111010
010111110001111100
010111011010010110
010111000011000111
010110101100001111
010110010101101111
010101111111100100
010101101001101111
010101010100010000
010100111111000111
010100101010010010
010100010101110010
010100000001100110
010011101101101111
010011011010001011
010011000110111010
010010110011111101
010010100001010010
010010001110111010
010001111100110100
010001101011000000
010001011001011110
010001001000001101
010000110111001110
010000100110011111
010000010110000001
010000000101110011
001111110101110101
001111100110000111
001111010110101001
001111000111011010
001110111000011010
001110101001101001
001110011011000110
001110001100110010
001101111110101101
001101110000110101
001101100011001011
001101010101101110
001101001000011111
001100111011011101
001100101110101000
001100100010000000
001100010101100100
001100001001010101
001011111101010010
001011110001011010
001011100101101111
001011011010001111
001011001110111010
001011000011110001
001010111000110011
001010101101111111
001010100011010110
001010011000111000
001010001110100101
001010000100011011
001001111010011100
001001110000100110
001001100110111010
001001011101011000
001001010100000000
001001001010110000
001001000001101010
001000111000101101
001000101111111001
001000100111001101
001000011110101010
001000010110010000
001000001101111110
001000000101110100
000111111101110010
000111110101111000
000111101110000110
000111100110011100
000111011110111001
000111010111011110
000111010000001010
000111001000111110
000111000001111000
000110111010111010
000110110100000010
000110101101010010
000110100110101000
000110100000000100
000110011001101000
000110010011010001
000110001101000001
000110000110110111
000110000000110011
000101111010110101
000101110100111101
000101101111001011
000101101001011111
000101100011111000
000101011110010111
000101011000111100
000101010011100101
000101001110010100
000101001001001001
000101000100000010
000100111111000001
000100111010000100
000100110101001100
000100110000011010
000100101011101100
000100100111000010
000100100010011101
000100011101111101
000100011001100010
000100010101001010
000100010000110111
000100001100101000
000100001000011110
000100000100010111
000100000000010101
000011111100010111
000011111000011100
000011110100100110
000011110000110011
000011101101000100
000011101001011001
000011100101110001
000011100010001101
000011011110101101
000011011011010000
000011010111110110
000011010100100000
000011010001001101
000011001101111110
000011001010110001
000011000111101000
000011000100100010
000011000001011111
000010111110011111
000010111011100010
000010111000101000
000010110101110001
000010110010111100
000010110000001011
000010101101011100
000010101010110000
000010101000000111
000010100101100000
000010100010111100
000010100000011010
000010011101111011
000010011011011110
000010011001000100
000010010110101100
000010010100010110
000010010010000011
000010001111110010
000010001101100100
000010001011010111
000010001001001101
000010000111000101
000010000100111111
000010000010111011
000010000000111001
000001111110111001
000001111100111011
000001111010111111
000001111001000101
000001110111001101
000001110101010111
000001110011100010
000001110001101111
000001101111111111
000001101110001111
000001101100100010
000001101010110110
000001101001001100
000001100111100100
000001100101111101
000001100100011000
000001100010110100
000001100001010010
000001011111110010
000001011110010011
000001011100110101
000001011011011001
000001011001111110
000001011000100101
000001010111001101
000001010101110111
000001010100100001
000001010011001110
000001010001111011
000001010000101010
000001001111011010
000001001110001011
000001001100111101
000001001011110001
000001001010100110
000001001001011100
000001001000010011
000001000111001011
000001000110000101
000001000100111111
000001000011111011
000001000010110111
000001000001110101
000001000000110011
000000111111110011
000000111110110100
000000111101110110
000000111100111000
000000111011111100
000000111011000000
000000111010000110
000000111001001100
000000111000010011
000000110111011011
000000110110100100
000000110101101110
000000110100111001
000000110100000100
000000110011010001
000000110010011110
000000110001101100
000000110000111011
000000110000001010
000000101111011010
000000101110101011
000000101101111101
000000101101001111
000000101100100010
000000101011110110
000000101011001011
000000101010100000
000000101001110110
000000101001001100
000000101000100011
000000100111111011
000000100111010011
000000100110101100
000000100110000110
000000100101100000
000000100100111011
000000100100010110
000000100011110010
000000100011001111
000000100010101100
000000100010001001
000000100001100111
000000100001000110
000000100000100101
000000100000000101
000000011111100101
000000011111000110
000000011110100111
000000011110001000
000000011101101011
000000011101001101
000000011100110000
000000011100010100
000000011011111000
000000011011011100
000000011011000001
000000011010100110
000000011010001011
000000011001110001
000000011001011000
000000011000111111
000000011000100110
000000011000001101
000000010111110101
000000010111011110
000000010111000111
000000010110110000
000000010110011001
000000010110000011
000000010101101101
000000010101010111
000000010101000010
000000010100101101
000000010100011001
000000010100000100
000000010011110001
000000010011011101
000000010011001010
000000010010110111
000000010010100100
000000010010010001
000000010001111111
000000010001101101
000000010001011100
000000010001001011
000000010000111010
000000010000101001
000000010000011000
000000010000001000
000000001111111000
000000001111101000
000000001111011001
000000001111001001
000000001110111010
000000001110101100
000000001110011101
000000001110001111
000000001110000001
000000001101110011
000000001101100101
000000001101010111
000000001101001010
000000001100111101
000000001100110000
000000001100100100
000000001100010111
000000001100001011
000000001011111111
000000001011110011
000000001011100111
000000001011011100
000000001011010000
000000001011000101
000000001010111010
000000001010101111
000000001010100101
000000001010011010
000000001010010000
000000001010000110
000000001001111100
000000001001110010
000000001001101000
000000001001011110
000000001001010101
000000001001001100
000000001001000011
000000001000111010
000000001000110001
000000001000101000
000000001000100000
000000001000010111
000000001000001111
000000001000000111
000000000111111111
000000000111110111
000000000111101111
000000000111100111
000000000111100000
000000000111011000
000000000111010001
000000000111001010
000000000111000011
000000000110111100
000000000110110101
000000000110101110
000000000110100111
000000000110100001
000000000110011010
000000000110010100
000000000110001110
000000000110000111
000000000110000001
000000000101111011
000000000101110101
000000000101110000
000000000101101010
000000000101100100
000000000101011111
000000000101011001
000000000101010100
000000000101001111
000000000101001010
000000000101000100
000000000100111111
000000000100111010
000000000100110110
000000000100110001
000000000100101100
000000000100100111
000000000100100011
000000000100011110
000000000100011010
000000000100010101
000000000100010001
000000000100001101
000000000100001001
000000000100000101
000000000100000001
000000000011111101
000000000011111001
000000000011110101
000000000011110001
000000000011101101
000000000011101010
000000000011100110
000000000011100010
000000000011011111
000000000011011011
000000000011011000
000000000011010101
000000000011010001
000000000011001110
000000000011001011
000000000011001000
000000000011000101
000000000011000010
000000000010111110
000000000010111100
000000000010111001
000000000010110110
000000000010110011
000000000010110000
000000000010101101
000000000010101011
000000000010101000
000000000010100101
000000000010100011
000000000010100000
000000000010011110
000000000010011011
000000000010011001
000000000010010111
000000000010010100
000000000010010010
000000000010010000
000000000010001101
000000000010001011
000000000010001001
000000000010000111
000000000010000101
000000000010000011
000000000010000001
000000000001111111
000000000001111101
000000000001111011
000000000001111001
000000000001110111
000000000001110101
000000000001110011
000000000001110010
000000000001110000
000000000001101110
000000000001101100
000000000001101011
000000000001101001
000000000001100111
000000000001100110
000000000001100100
000000000001100011
000000000001100001
000000000001100000
000000000001011110
000000000001011101
000000000001011011
000000000001011010
000000000001011000
000000000001010111
000000000001010110
000000000001010100
000000000001010011
000000000001010010
000000000001010000
000000000001001111
000000000001001110
000000000001001101
000000000001001011
000000000001001010
000000000001001001
000000000001001000
000000000001000111
000000000001000110
000000000001000101
000000000001000100
000000000001000011
000000000001000010
000000000001000000
000000000000111111
000000000000111110
000000000000111110
000000000000111101
000000000000111100
000000000000111011
000000000000111010
000000000000111001
000000000000111000
000000000000110111
000000000000110110
000000000000110101
000000000000110101
000000000000110100
000000000000110011
000000000000110010
000000000000110001
000000000000110001
000000000000110000
000000000000101111
000000000000101110
000000000000101110
000000000000101101
000000000000101100
000000000000101011
000000000000101011
000000000000101010
000000000000101001
000000000000101001
000000000000101000
000000000000101000
000000000000100111
000000000000100110
000000000000100110
000000000000100101
000000000000100101
000000000000100100
000000000000100011
000000000000100011
000000000000100010
000000000000100010
000000000000100001
000000000000100001
000000000000100000
000000000000100000
000000000000011111
000000000000011111
000000000000011110
000000000000011110
000000000000011101
000000000000011101
000000000000011100
000000000000011100
000000000000011011
000000000000011011
000000000000011011
000000000000011010
000000000000011010
000000000000011001
000000000000011001
000000000000011001
000000000000011000
000000000000011000
000000000000010111
000000000000010111
000000000000010111
000000000000010110
000000000000010110
000000000000010110
000000000000010101
000000000000010101
000000000000010101
000000000000010100
000000000000010100
000000000000010100
000000000000010011
000000000000010011
000000000000010011
000000000000010010
000000000000010010
000000000000010010
000000000000010010
000000000000010001
000000000000010001
000000000000010001
000000000000010000
000000000000010000
000000000000010000
000000000000010000
000000000000001111
000000000000001111
000000000000001111
000000000000001111
000000000000001110
000000000000001110
000000000000001110
000000000000001110
000000000000001110
000000000000001101
000000000000001101
000000000000001101
000000000000001101
000000000000001100
000000000000001100
000000000000001100
000000000000001100
000000000000001100
000000000000001100
000000000000001011
000000000000001011
000000000000001011
000000000000001011
000000000000001011
000000000000001010
000000000000001010
000000000000001010
000000000000001010
000000000000001010
000000000000001010
000000000000001001
000000000000001001
000000000000001001
000000000000001001
000000000000001001
000000000000001001
000000000000001001
000000000000001000
000000000000001000
000000000000001000
000000000000001000
000000000000001000
000000000000001000
000000000000001000
000000000000001000
000000000000000111
000000000000000111
000000000000000111
000000000000000111
000000000000000111
000000000000000111
000000000000000111
000000000000000111
000000000000000110
000000000000000110
000000000000000110
000000000000000110
000000000000000110
000000000000000110
000000000000000110
000000000000000110
000000000000000110
000000000000000110
000000000000000101
000000000000000101
000000000000000101
000000000000000101
000000000000000101
000000000000000101
000000000000000101
000000000000000101
000000000000000101
000000000000000101
000000000000000101
000000000000000101
000000000000000100
000000000000000100
000000000000000100
000000000000000100
000000000000000100
000000000000000100
000000000000000100
000000000000000100
000000000000000100
000000000000000100
000000000000000100
000000000000000100
000000000000000100
000000000000000100
000000000000000011
000000000000000011
000000000000000011
000000000000000011
000000000000000011
000000000000000011
000000000000000011
000000000000000011
000000000000000011
000000000000000011
000000000000000011
000000000000000011
000000000000000011
000000000000000011
000000000000000011
000000000000000011
000000000000000011
000000000000000011
000000000000000010
000000000000000010
000000000000000010
000000000000000010
000000000000000010
000000000000000010
000000000000000010
000000000000000010
000000000000000010
000000000000000010
000000000000000010
000000000000000010
000000000000000010
000000000000000010
000000000000000010
000000000000000010
000000000000000010
000000000000000010
000000000000000010
000000000000000010
000000000000000010
000000000000000010
000000000000000010
000000000000000010
000000000000000010
000000000000000010
000000000000000001
000000000000000001
000000000000000001
000000000000000001
000000000000000001
000000000000000001
000000000000000001
000000000000000001
000000000000000001
000000000000000001
000000000000000001
000000000000000001
000000000000000001
000000000000000001
000000000000000001
000000000000000001
000000000000000001
000000000000000001
000000000000000001
000000000000000001
000000000000000001
000000000000000001
000000000000000001
000000000000000001
000000000000000001
000000000000000001
000000000000000001
000000000000000001
000000000000000001
000000000000000001
000000000000000001
000000000000000001
000000000000000001
000000000000000001
000000000000000001
000000000000000001
000000000000000001
000000000000000001
000000000000000001
000000000000000001
000000000000000001
000000000000000001
000000000000000001
000000000000000001
000000000000000001
000000000000000000
000000000000000000
000000000000000000
000000000000000000
000000000000000000
000000000000000000
000000000000000000
000000000000000000
000000000000000000
000000000000000000
000000000000000000
000000000000000000
000000000000000000
000000000000000000
000000000000000000
000000000000000000
000000000000000000
000000000000000000
000000000000000000
000000000000000000
000000000000000000
000000000000000000
000000000000000000
000000000000000000
000000000000000000
000000000000000000
000000000000000000
000000000000000000
000000000000000000
000000000000000000
000000000000000000
000000000000000000
000000000000000000
000000000000000000
000000000000000000
000000000000000000
000000000000000000
000000000000000000
000000000000000000
000000000000000000
000000000000000000
000000000000000000
000000000000000000
000000000000000000
000000000000000000
000000000000000000
000000000000000000
000000000000000000
000000000000000000
000000000000000000
000000000000000000
000000000000000000
000000000000000000
000000000000000000
000000000000000000
000000000000000000
000000000000000000
000000000000000000
000000000000000000
000000000000000000
000000000000000000
000000000000000000
000000000000000000
000000000000000000
000000000000000000
000000000000000000
000000000000000000
000000000000000000
000000000000000000
000000000000000000
000000000000000000
000000000000000000
000000000000000000
000000000000000000
000000000000000000
000000000000000000
000000000000000000
000000000000000000
000000000000000000
000000000000000000
000000000000000000
000000000000000000
000000000000000000
000000000000000000
000000000000000000
000000000000000000
000000000000000000
000000000000000000
000000000000000000
000000000000000000
000000000000000000
000000000000000000
000000000000000000
000000000000000000
000000000000000000
000000000000000000
000000000000000000
000000000000000000
000000000000000000
000000000000000000
000000000000000000
000000000000000000
000000000000000000
000000000000000000
000000000000000000
000000000000000000
000000000000000000
000000000000000000
000000000000000000
000000000000000000
000000000000000000
000000000000000000
000000000000000000
000000000000000000
000000000000000000
000000000000000000
000000000000000000
000000000000000000
000000000000000000
000000000000000000
000000000000000000
000000000000000000
000000000000000000
000000000000000000
000000000000000000
000000000000000000
000000000000000000
000000000000000000
000000000000000000
000000000000000000
000000000000000000
000000000000000000
000000000000000000
000000000000000000
000000000000000000
000000000000000000
000000000000000000
000000000000000000
000000000000000000
000000000000000000
000000000000000000
000000000000000000
000000000000000000
000000000000000000
000000000000000000
000000000000000000
000000000000000000
000000000000000000
000000000000000000
000000000000000000
000000000000000000
000000000000000000
000000000000000000
000000000000000000
000000000000000000
000000000000000000
000000000000000000
000000000000000000
000000000000000000
000000000000000000
000000000000000000
000000000000000000
000000000000000000
000000000000000000
000000000000000000
000000000000000000
000000000000000000
000000000000000000
000000000000000000
000000000000000000
000000000000000000
000000000000000000
000000000000000000
000000000000000000
000000000000000000
000000000000000000
000000000000000000
000000000000000000
000000000000000000
000000000000000000
000000000000000000
000000000000000000
000000000000000000
000000000000000000
000000000000000000
000000000000000000
000000000000000000
000000000000000000
000000000000000000
000000000000000000
000000000000000000
000000000000000000
000000000000000000
000000000000000000
000000000000000000
000000000000000000
000000000000000000
000000000000000000
000000000000000000
000000000000000000
000000000000000000
000000000000000000
000000000000000000
000000000000000000
000000000000000000
000000000000000000
000000000000000000
000000000000000000
000000000000000000
000000000000000000
000000000000000000
000000000000000000
000000000000000000
000000000000000000
000000000000000000
000000000000000000
000000000000000000
000000000000000000
000000000000000000
000000000000000000
000000000000000000
000000000000000000
000000000000000000
000000000000000000
000000000000000000
000000000000000000
000000000000000000
000000000000000000
000000000000000000
000000000000000000
000000000000000000
000000000000000000
000000000000000000
000000000000000000
000000000000000000
000000000000000000
000000000000000000
000000000000000000
000000000000000000
000000000000000000
000000000000000000
000000000000000000
000000000000000000
000000000000000000
000000000000000000
000000000000000000
000000000000000000
000000000000000000
000000000000000000
000000000000000000
000000000000000000
000000000000000000
000000000000000000
000000000000000000
000000000000000000
000000000000000000
000000000000000000
000000000000000000
000000000000000000
000000000000000000
000000000000000000
000000000000000000
000000000000000000
000000000000000000
000000000000000000
000000000000000000
000000000000000000
000000000000000000
000000000000000000
