011111111111111111
000100000000000000
000010000000000000
000001010101010101
000001000000000000
000000110011001100
000000101010101010
000000100100100100
000000100000000000
000000011100011100
000000011001100110
000000010111010001
000000010101010101
000000010011101100
000000010010010010
000000010001000100
000000010000000000
000000001111000011
000000001110001110
000000001101011110
000000001100110011
000000001100001100
000000001011101000
000000001011001000
000000001010101010
000000001010001111
000000001001110110
000000001001011110
000000001001001001
000000001000110100
000000001000100010
000000001000010000
000000001000000000
000000000111110000
000000000111100001
000000000111010100
000000000111000111
000000000110111010
000000000110101111
000000000110100100
000000000110011001
000000000110001111
000000000110000110
000000000101111101
000000000101110100
000000000101101100
000000000101100100
000000000101011100
000000000101010101
000000000101001110
000000000101000111
000000000101000001
000000000100111011
000000000100110101
000000000100101111
000000000100101001
000000000100100100
000000000100011111
000000000100011010
000000000100010101
000000000100010001
000000000100001100
000000000100001000
000000000100000100
000000000100000000
000000000011111100
000000000011111000
000000000011110100
000000000011110000
000000000011101101
000000000011101010
000000000011100110
000000000011100011
000000000011100000
000000000011011101
000000000011011010
000000000011010111
000000000011010100
000000000011010010
000000000011001111
000000000011001100
000000000011001010
000000000011000111
000000000011000101
000000000011000011
000000000011000000
000000000010111110
000000000010111100
000000000010111010
000000000010111000
000000000010110110
000000000010110100
000000000010110010
000000000010110000
000000000010101110
000000000010101100
000000000010101010
000000000010101000
000000000010100111
000000000010100101
000000000010100011
000000000010100010
000000000010100000
000000000010011111
000000000010011101
000000000010011100
000000000010011010
000000000010011001
000000000010010111
000000000010010110
000000000010010100
000000000010010011
000000000010010010
000000000010010000
000000000010001111
000000000010001110
000000000010001101
000000000010001100
000000000010001010
000000000010001001
000000000010001000
000000000010000111
000000000010000110
000000000010000101
000000000010000100
000000000010000011
000000000010000010
000000000010000001
000000000010000000
000000000001111111
000000000001111110
000000000001111101
000000000001111100
000000000001111011
000000000001111010
000000000001111001
000000000001111000
000000000001110111
000000000001110110
000000000001110101
000000000001110101
000000000001110100
000000000001110011
000000000001110010
000000000001110001
000000000001110000
000000000001110000
000000000001101111
000000000001101110
000000000001101101
000000000001101101
000000000001101100
000000000001101011
000000000001101011
000000000001101010
000000000001101001
000000000001101001
000000000001101000
000000000001100111
000000000001100111
000000000001100110
000000000001100101
000000000001100101
000000000001100100
000000000001100011
000000000001100011
000000000001100010
000000000001100010
000000000001100001
000000000001100000
000000000001100000
000000000001011111
000000000001011111
000000000001011110
000000000001011110
000000000001011101
000000000001011101
000000000001011100
000000000001011100
000000000001011011
000000000001011011
000000000001011010
000000000001011010
000000000001011001
000000000001011001
000000000001011000
000000000001011000
000000000001010111
000000000001010111
000000000001010110
000000000001010110
000000000001010101
000000000001010101
000000000001010100
000000000001010100
000000000001010100
000000000001010011
000000000001010011
000000000001010010
000000000001010010
000000000001010001
000000000001010001
000000000001010001
000000000001010000
000000000001010000
000000000001001111
000000000001001111
000000000001001111
000000000001001110
000000000001001110
000000000001001110
000000000001001101
000000000001001101
000000000001001100
000000000001001100
000000000001001100
000000000001001011
000000000001001011
000000000001001011
000000000001001010
000000000001001010
000000000001001010
000000000001001001
000000000001001001
000000000001001001
000000000001001000
000000000001001000
000000000001001000
000000000001000111
000000000001000111
000000000001000111
000000000001000110
000000000001000110
000000000001000110
000000000001000110
000000000001000101
000000000001000101
000000000001000101
000000000001000100
000000000001000100
000000000001000100
000000000001000011
000000000001000011
000000000001000011
000000000001000011
000000000001000010
000000000001000010
000000000001000010
000000000001000010
000000000001000001
000000000001000001
000000000001000001
000000000001000001
000000000001000000
000000000001000000
000000000001000000
000000000001000000
000000000000111111
000000000000111111
000000000000111111
000000000000111111
000000000000111110
000000000000111110
000000000000111110
000000000000111110
000000000000111101
000000000000111101
000000000000111101
000000000000111101
000000000000111100
000000000000111100
000000000000111100
000000000000111100
000000000000111100
000000000000111011
000000000000111011
000000000000111011
000000000000111011
000000000000111010
000000000000111010
000000000000111010
000000000000111010
000000000000111010
000000000000111001
000000000000111001
000000000000111001
000000000000111001
000000000000111001
000000000000111000
000000000000111000
000000000000111000
000000000000111000
000000000000111000
000000000000110111
000000000000110111
000000000000110111
000000000000110111
000000000000110111
000000000000110110
000000000000110110
000000000000110110
000000000000110110
000000000000110110
000000000000110110
000000000000110101
000000000000110101
000000000000110101
000000000000110101
000000000000110101
000000000000110101
000000000000110100
000000000000110100
000000000000110100
000000000000110100
000000000000110100
000000000000110100
000000000000110011
000000000000110011
000000000000110011
000000000000110011
000000000000110011
000000000000110011
000000000000110010
000000000000110010
000000000000110010
000000000000110010
000000000000110010
000000000000110010
000000000000110001
000000000000110001
000000000000110001
000000000000110001
000000000000110001
000000000000110001
000000000000110001
000000000000110000
000000000000110000
000000000000110000
000000000000110000
000000000000110000
000000000000110000
000000000000110000
000000000000101111
000000000000101111
000000000000101111
000000000000101111
000000000000101111
000000000000101111
000000000000101111
000000000000101110
000000000000101110
000000000000101110
000000000000101110
000000000000101110
000000000000101110
000000000000101110
000000000000101110
000000000000101101
000000000000101101
000000000000101101
000000000000101101
000000000000101101
000000000000101101
000000000000101101
000000000000101101
000000000000101100
000000000000101100
000000000000101100
000000000000101100
000000000000101100
000000000000101100
000000000000101100
000000000000101100
000000000000101011
000000000000101011
000000000000101011
000000000000101011
000000000000101011
000000000000101011
000000000000101011
000000000000101011
000000000000101011
000000000000101010
000000000000101010
000000000000101010
000000000000101010
000000000000101010
000000000000101010
000000000000101010
000000000000101010
000000000000101010
000000000000101001
000000000000101001
000000000000101001
000000000000101001
000000000000101001
000000000000101001
000000000000101001
000000000000101001
000000000000101001
000000000000101000
000000000000101000
000000000000101000
000000000000101000
000000000000101000
000000000000101000
000000000000101000
000000000000101000
000000000000101000
000000000000101000
000000000000100111
000000000000100111
000000000000100111
000000000000100111
000000000000100111
000000000000100111
000000000000100111
000000000000100111
000000000000100111
000000000000100111
000000000000100111
000000000000100110
000000000000100110
000000000000100110
000000000000100110
000000000000100110
000000000000100110
000000000000100110
000000000000100110
000000000000100110
000000000000100110
000000000000100110
000000000000100101
000000000000100101
000000000000100101
000000000000100101
000000000000100101
000000000000100101
000000000000100101
000000000000100101
000000000000100101
000000000000100101
000000000000100101
000000000000100100
000000000000100100
000000000000100100
000000000000100100
000000000000100100
000000000000100100
000000000000100100
000000000000100100
000000000000100100
000000000000100100
000000000000100100
000000000000100100
000000000000100100
000000000000100011
000000000000100011
000000000000100011
000000000000100011
000000000000100011
000000000000100011
000000000000100011
000000000000100011
000000000000100011
000000000000100011
000000000000100011
000000000000100011
000000000000100011
000000000000100010
000000000000100010
000000000000100010
000000000000100010
000000000000100010
000000000000100010
000000000000100010
000000000000100010
000000000000100010
000000000000100010
000000000000100010
000000000000100010
000000000000100010
000000000000100001
000000000000100001
000000000000100001
000000000000100001
000000000000100001
000000000000100001
000000000000100001
000000000000100001
000000000000100001
000000000000100001
000000000000100001
000000000000100001
000000000000100001
000000000000100001
000000000000100001
000000000000100000
000000000000100000
000000000000100000
000000000000100000
000000000000100000
000000000000100000
000000000000100000
000000000000100000
000000000000100000
000000000000100000
000000000000100000
000000000000100000
000000000000100000
000000000000100000
000000000000100000
111111111111100000
111111111111100000
111111111111100000
111111111111100000
111111111111100000
111111111111100000
111111111111100000
111111111111100000
111111111111100000
111111111111100000
111111111111100000
111111111111100000
111111111111100000
111111111111100000
111111111111100000
111111111111100000
111111111111011111
111111111111011111
111111111111011111
111111111111011111
111111111111011111
111111111111011111
111111111111011111
111111111111011111
111111111111011111
111111111111011111
111111111111011111
111111111111011111
111111111111011111
111111111111011111
111111111111011111
111111111111011110
111111111111011110
111111111111011110
111111111111011110
111111111111011110
111111111111011110
111111111111011110
111111111111011110
111111111111011110
111111111111011110
111111111111011110
111111111111011110
111111111111011110
111111111111011101
111111111111011101
111111111111011101
111111111111011101
111111111111011101
111111111111011101
111111111111011101
111111111111011101
111111111111011101
111111111111011101
111111111111011101
111111111111011101
111111111111011101
111111111111011100
111111111111011100
111111111111011100
111111111111011100
111111111111011100
111111111111011100
111111111111011100
111111111111011100
111111111111011100
111111111111011100
111111111111011100
111111111111011100
111111111111011100
111111111111011011
111111111111011011
111111111111011011
111111111111011011
111111111111011011
111111111111011011
111111111111011011
111111111111011011
111111111111011011
111111111111011011
111111111111011011
111111111111011010
111111111111011010
111111111111011010
111111111111011010
111111111111011010
111111111111011010
111111111111011010
111111111111011010
111111111111011010
111111111111011010
111111111111011010
111111111111011001
111111111111011001
111111111111011001
111111111111011001
111111111111011001
111111111111011001
111111111111011001
111111111111011001
111111111111011001
111111111111011001
111111111111011001
111111111111011000
111111111111011000
111111111111011000
111111111111011000
111111111111011000
111111111111011000
111111111111011000
111111111111011000
111111111111011000
111111111111011000
111111111111010111
111111111111010111
111111111111010111
111111111111010111
111111111111010111
111111111111010111
111111111111010111
111111111111010111
111111111111010111
111111111111010110
111111111111010110
111111111111010110
111111111111010110
111111111111010110
111111111111010110
111111111111010110
111111111111010110
111111111111010110
111111111111010101
111111111111010101
111111111111010101
111111111111010101
111111111111010101
111111111111010101
111111111111010101
111111111111010101
111111111111010101
111111111111010100
111111111111010100
111111111111010100
111111111111010100
111111111111010100
111111111111010100
111111111111010100
111111111111010100
111111111111010011
111111111111010011
111111111111010011
111111111111010011
111111111111010011
111111111111010011
111111111111010011
111111111111010011
111111111111010010
111111111111010010
111111111111010010
111111111111010010
111111111111010010
111111111111010010
111111111111010010
111111111111010010
111111111111010001
111111111111010001
111111111111010001
111111111111010001
111111111111010001
111111111111010001
111111111111010001
111111111111010000
111111111111010000
111111111111010000
111111111111010000
111111111111010000
111111111111010000
111111111111010000
111111111111001111
111111111111001111
111111111111001111
111111111111001111
111111111111001111
111111111111001111
111111111111001111
111111111111001110
111111111111001110
111111111111001110
111111111111001110
111111111111001110
111111111111001110
111111111111001101
111111111111001101
111111111111001101
111111111111001101
111111111111001101
111111111111001101
111111111111001100
111111111111001100
111111111111001100
111111111111001100
111111111111001100
111111111111001100
111111111111001011
111111111111001011
111111111111001011
111111111111001011
111111111111001011
111111111111001011
111111111111001010
111111111111001010
111111111111001010
111111111111001010
111111111111001010
111111111111001010
111111111111001001
111111111111001001
111111111111001001
111111111111001001
111111111111001001
111111111111001000
111111111111001000
111111111111001000
111111111111001000
111111111111001000
111111111111000111
111111111111000111
111111111111000111
111111111111000111
111111111111000111
111111111111000110
111111111111000110
111111111111000110
111111111111000110
111111111111000110
111111111111000101
111111111111000101
111111111111000101
111111111111000101
111111111111000100
111111111111000100
111111111111000100
111111111111000100
111111111111000100
111111111111000011
111111111111000011
111111111111000011
111111111111000011
111111111111000010
111111111111000010
111111111111000010
111111111111000010
111111111111000001
111111111111000001
111111111111000001
111111111111000001
111111111111000000
111111111111000000
111111111111000000
111111111111000000
111111111110111111
111111111110111111
111111111110111111
111111111110111111
111111111110111110
111111111110111110
111111111110111110
111111111110111110
111111111110111101
111111111110111101
111111111110111101
111111111110111101
111111111110111100
111111111110111100
111111111110111100
111111111110111011
111111111110111011
111111111110111011
111111111110111010
111111111110111010
111111111110111010
111111111110111010
111111111110111001
111111111110111001
111111111110111001
111111111110111000
111111111110111000
111111111110111000
111111111110110111
111111111110110111
111111111110110111
111111111110110110
111111111110110110
111111111110110110
111111111110110101
111111111110110101
111111111110110101
111111111110110100
111111111110110100
111111111110110100
111111111110110011
111111111110110011
111111111110110010
111111111110110010
111111111110110010
111111111110110001
111111111110110001
111111111110110001
111111111110110000
111111111110110000
111111111110101111
111111111110101111
111111111110101111
111111111110101110
111111111110101110
111111111110101101
111111111110101101
111111111110101100
111111111110101100
111111111110101100
111111111110101011
111111111110101011
111111111110101010
111111111110101010
111111111110101001
111111111110101001
111111111110101000
111111111110101000
111111111110100111
111111111110100111
111111111110100110
111111111110100110
111111111110100101
111111111110100101
111111111110100100
111111111110100100
111111111110100011
111111111110100011
111111111110100010
111111111110100010
111111111110100001
111111111110100001
111111111110100000
111111111110100000
111111111110011111
111111111110011110
111111111110011110
111111111110011101
111111111110011101
111111111110011100
111111111110011011
111111111110011011
111111111110011010
111111111110011001
111111111110011001
111111111110011000
111111111110010111
111111111110010111
111111111110010110
111111111110010101
111111111110010101
111111111110010100
111111111110010011
111111111110010011
111111111110010010
111111111110010001
111111111110010000
111111111110010000
111111111110001111
111111111110001110
111111111110001101
111111111110001100
111111111110001011
111111111110001011
111111111110001010
111111111110001001
111111111110001000
111111111110000111
111111111110000110
111111111110000101
111111111110000100
111111111110000011
111111111110000010
111111111110000001
111111111110000000
111111111101111111
111111111101111110
111111111101111101
111111111101111100
111111111101111011
111111111101111010
111111111101111001
111111111101111000
111111111101110111
111111111101110110
111111111101110100
111111111101110011
111111111101110010
111111111101110001
111111111101110000
111111111101101110
111111111101101101
111111111101101100
111111111101101010
111111111101101001
111111111101100111
111111111101100110
111111111101100100
111111111101100011
111111111101100001
111111111101100000
111111111101011110
111111111101011101
111111111101011011
111111111101011001
111111111101011000
111111111101010110
111111111101010100
111111111101010010
111111111101010000
111111111101001110
111111111101001100
111111111101001010
111111111101001000
111111111101000110
111111111101000100
111111111101000010
111111111101000000
111111111100111101
111111111100111011
111111111100111001
111111111100110110
111111111100110100
111111111100110001
111111111100101110
111111111100101100
111111111100101001
111111111100100110
111111111100100011
111111111100100000
111111111100011101
111111111100011010
111111111100010110
111111111100010011
111111111100010000
111111111100001100
111111111100001000
111111111100000100
111111111100000000
111111111011111100
111111111011111000
111111111011110100
111111111011101111
111111111011101011
111111111011100110
111111111011100001
111111111011011100
111111111011010111
111111111011010001
111111111011001011
111111111011000101
111111111010111111
111111111010111001
111111111010110010
111111111010101011
111111111010100100
111111111010011100
111111111010010100
111111111010001100
111111111010000011
111111111001111010
111111111001110001
111111111001100111
111111111001011100
111111111001010001
111111111001000110
111111111000111001
111111111000101100
111111111000011111
111111111000010000
111111111000000000
111111110111110000
111111110111011110
111111110111001100
111111110110110111
111111110110100010
111111110110001010
111111110101110001
111111110101010110
111111110100111000
111111110100011000
111111110011110100
111111110011001101
111111110010100010
111111110001110010
111111110000111101
111111110000000000
111111101110111100
111111101101101110
111111101100010100
111111101010101011
111111101000101111
111111100110011010
111111100011100100
111111100000000000
111111011011011100
111111010101010110
111111001100110100
111111000000000000
111110101010101011
111110000000000000
111100000000000000