111111111111111111
111111111111111111
111111111111111111
111111111111111111
111111111111111111
111111111111111111
111111111111111111
111111111111111111
111111111111111111
111111111111111111
111111111111111111
111111111111111111
111111111111111111
111111111111111111
111111111111111111
111111111111111111
111111111111111111
111111111111111111
111111111111111111
111111111111111111
111111111111111111
111111111111111111
111111111111111111
111111111111111111
111111111111111111
111111111111111111
111111111111111111
111111111111111111
111111111111111111
111111111111111111
111111111111111111
111111111111111111
111111111111111111
111111111111111111
111111111111111111
111111111111111111
111111111111111111
111111111111111111
111111111111111111
111111111111111111
111111111111111111
111111111111111111
111111111111111111
111111111111111111
111111111111111111
111111111111111111
111111111111111111
111111111111111111
111111111111111111
111111111111111111
111111111111111111
111111111111111111
111111111111111111
111111111111111111
111111111111111111
111111111111111111
111111111111111111
111111111111111111
111111111111111111
111111111111111111
111111111111111111
111111111111111111
111111111111111111
111111111111111111
111111111111111111
111111000000111111
111110000011111000
111101001000100110
111100001111000011
111011010111001100
111010100000111010
111001101100001010
111000111000111000
111000000111000000
110111010110011111
110110100111010000
110101111001010000
110101001100011101
110100100000110100
110011110110010001
110011001100110011
110010100100010110
110001111100111000
110001010110010111
110000110000110000
110000001100000011
101111101000001011
101111000101001001
101110100010111010
101110000001011100
101101100000101101
101101000000101101
101100100001011001
101100000010110000
101011100100110001
101011000111011010
101010101010101010
101010001110100000
101001110010111100
101001010111111010
101000111101011100
101000100011011111
101000001010000010
100111110001000101
100111011000100111
100111000000100111
100110101001000011
100110010001111100
100101111011010000
100101100100111111
100101001111001000
100100111001101010
100100100100100100
100100001111110110
100011111011100000
100011100111100000
100011010011110111
100011000000100011
100010101101100011
100010011010111001
100010001000100010
100001110110011110
100001100100101110
100001010011010000
100001000010000100
100000110001001001
100000100000100000
100000010000001000
100000000000000000
011111110000000111
011111100000011111
011111010001000110
011111000001111100
011110110011000000
011110100100010011
011110010101110011
011110000111100001
011101111001011101
011101101011100110
011101011101111011
011101010000011101
011101000011001011
011100110110000101
011100101001001011
011100011100011100
011100001111111000
011100000011100000
011011110111010010
011011101011001111
011011011111010110
011011010011101000
011011001000000011
011010111100101000
011010110001010111
011010100110001110
011010011011010000
011010010000011010
011010000101101101
011001111011001000
011001110000101101
011001100110011001
011001011100001110
011001010010001011
011001001000001111
011000111110011100
011000110100110000
011000101011001011
011000100001101110
011000011000011000
011000001111001001
011000000110000001
010111111101000000
010111110100000101
010111101011010010
010111100010100100
010111011001111101
010111010001011101
010111001001000010
010111000000101110
010110111000011111
010110110000010110
010110101000010011
010110100000010110
010110011000011110
010110010000101100
010110001000111111
010110000001011000
010101111001110101
010101110010011000
010101101011000000
010101100011101101
010101011100011110
010101010101010101
010101001110010000
010101000111010000
010101000000010101
010100111001011110
010100110010101011
010100101011111101
010100100101010011
010100011110101110
010100011000001100
010100010001101111
010100001011010110
010100000101000001
010011111110110000
010011111000100010
010011110010011001
010011101100010011
010011100110010001
010011100000010011
010011011010011000
010011010100100001
010011001110101110
010011001000111110
010011000011010001
010010111101101000
010010111000000010
010010110010011111
010010101101000000
010010100111100100
010010100010001011
010010011100110101
010010010111100010
010010010010010010
010010001101000101
010010000111111011
010010000010110100
010001111101110000
010001111000101110
010001110011110000
010001101110110100
010001101001111011
010001100101000101
010001100000010001
010001011011100000
010001010110110001
010001010010000101
010001001101011100
010001001000110101
010001000100010001
010000111111101111
010000111011001111
010000110110110010
010000110010010111
010000101101111110
010000101001101000
010000100101010011
010000100001000010
010000011100110010
010000011000100100
010000010100011001
010000010000010000
010000001100001001
010000001000000100
010000000100000001
010000000000000000
001111111100000000
001111111000000011
001111110100001000
001111110000001111
001111101100011000
001111101000100011
001111100100101111
001111100000111110
001111011101001110
001111011001100000
001111010101110100
001111010010001001
001111001110100000
001111001010111001
001111000111010100
001111000011110000
001111000000001111
001110111100101110
001110111001010000
001110110101110011
001110110010010111
001110101110111101
001110101011100101
001110101000001110
001110100100111001
001110100001100101
001110011110010011
001110011011000010
001110010111110011
001110010100100101
001110010001011001
001110001110001110
001110001011000100
001110000111111100
001110000100110101
001110000001110000
001101111110101100
001101111011101001
001101111000100111
001101110101100111
001101110010101000
001101101111101011
001101101100101111
001101101001110100
001101100110111010
001101100100000001
001101100001001010
001101011110010100
001101011011011111
001101011000101011
001101010101111000
001101010011000111
001101010000010111
001101001101101000
001101001010111010
001101001000001101
001101000101100001
001101000010110110
001101000000001101
001100111101100100
001100111010111100
001100111000010110
001100110101110001
001100110011001100
001100110000101001
001100101110000111
001100101011100101
001100101001000101
001100100110100110
001100100100000111
001100100001101010
001100011111001110
001100011100110010
001100011010011000
001100010111111110
001100010101100101
001100010011001110
001100010000110111
001100001110100001
001100001100001100
001100001001111000
001100000111100100
001100000101010010
001100000011000000
001100000000110000
001011111110100000
001011111100010001
001011111010000010
001011110111110101
001011110101101001
001011110011011101
001011110001010010
001011101111001000
001011101100111110
001011101010110110
001011101000101110
001011100110100111
001011100100100001
001011100010011011
001011100000010111
001011011110010011
001011011100001111
001011011010001101
001011011000001011
001011010110001010
001011010100001001
001011010010001010
001011010000001011
001011001110001100
001011001100001111
001011001010010010
001011001000010110
001011000110011010
001011000100011111
001011000010100101
001011000000101100
001010111110110011
001010111100111010
001010111011000011
001010111001001100
001010110111010101
001010110101100000
001010110011101011
001010110001110110
001010110000000010
001010101110001111
001010101100011100
001010101010101010
001010101000111001
001010100111001000
001010100101010111
001010100011101000
001010100001111001
001010100000001010
001010011110011100
001010011100101111
001010011011000010
001010011001010101
001010010111101001
001010010101111110
001010010100010011
001010010010101001
001010010001000000
001010001111010111
001010001101101110
001010001100000110
001010001010011110
001010001000110111
001010000111010001
001010000101101011
001010000100000101
001010000010100000
001010000000111100
001001111111011000
001001111101110100
001001111100010001
001001111010101110
001001111001001100
001001110111101011
001001110110001001
001001110100101001
001001110011001000
001001110001101001
001001110000001001
001001101110101010
001001101101001100
001001101011101110
001001101010010000
001001101000110011
001001100111010111
001001100101111010
001001100100011111
001001100011000011
001001100001101000
001001100000001110
001001011110110100
001001011101011010
001001011100000001
001001011010101000
001001011001001111
001001010111110111
001001010110100000
001001010101001000
001001010011110010
001001010010011011
001001010001000101
001001001111101111
001001001110011010
001001001101000101
001001001011110001
001001001010011100
001001001001001001
001001000111110101
001001000110100010
001001000101010000
001001000011111101
001001000010101011
001001000001011010
001001000000001001
001000111110111000
001000111101100111
001000111100010111
001000111011000111
001000111001111000
001000111000101001
001000110111011010
001000110110001011
001000110100111101
001000110011110000
001000110010100010
001000110001010101
001000110000001000
001000101110111100
001000101101110000
001000101100100100
001000101011011000
001000101010001101
001000101001000010
001000100111111000
001000100110101110
001000100101100100
001000100100011010
001000100011010001
001000100010001000
001000100000111111
001000011111110111
001000011110101111
001000011101100111
001000011100100000
001000011011011001
001000011010010010
001000011001001011
001000011000000101
001000010110111111
001000010101111001
001000010100110100
001000010011101110
001000010010101001
001000010001100101
001000010000100001
001000001111011100
001000001110011001
001000001101010101
001000001100010010
001000001011001111
001000001010001100
001000001001001010
001000001000001000
001000000111000110
001000000110000100
001000000101000011
001000000100000010
001000000011000001
001000000010000000
001000000001000000
001000000000000000
000111111111000000
000111111110000000
000111111101000001
000111111100000001
000111111011000011
000111111010000100
000111111001000110
000111111000000111
000111110111001001
000111110110001100
000111110101001110
000111110100010001
000111110011010100
000111110010010111
000111110001011011
000111110000011111
000111101111100010
000111101110100111
000111101101101011
000111101100110000
000111101011110100
000111101010111010
000111101001111111
000111101001000100
000111101000001010
000111100111010000
000111100110010110
000111100101011100
000111100100100011
000111100011101010
000111100010110001
000111100001111000
000111100000111111
000111100000000111
000111011111001111
000111011110010111
000111011101011111
000111011100101000
000111011011110000
000111011010111001
000111011010000010
000111011001001011
000111011000010101
000111010111011110
000111010110101000
000111010101110010
000111010100111100
000111010100000111
000111010011010001
000111010010011100
000111010001100111
000111010000110010
000111001111111110
000111001111001001
000111001110010101
000111001101100001
000111001100101101
000111001011111001
000111001011000110
000111001010010010
000111001001011111
000111001000101100
000111000111111001
000111000111000111
000111000110010100
000111000101100010
000111000100110000
000111000011111110
000111000011001100
000111000010011010
000111000001101001
000111000000111000
000111000000000111
000110111111010110
000110111110100101
000110111101110100
000110111101000100
000110111100010011
000110111011100011
000110111010110011
000110111010000100
000110111001010100
000110111000100101
000110110111110101
000110110111000110
000110110110010111
000110110101101000
000110110100111010
000110110100001011
000110110011011101
000110110010101110
000110110010000000
000110110001010010
000110110000100101
000110101111110111
000110101111001010
000110101110011100
000110101101101111
000110101101000010
000110101100010101
000110101011101001
000110101010111100
000110101010010000
000110101001100011
000110101000110111
000110101000001011
000110100111011111
000110100110110100
000110100110001000
000110100101011101
000110100100110001
000110100100000110
000110100011011011
000110100010110000
000110100010000101
000110100001011011
000110100000110000
000110100000000110
000110011111011100
000110011110110010
000110011110001000
000110011101011110
000110011100110100
000110011100001011
000110011011100001
000110011010111000
000110011010001111
000110011001100110
000110011000111101
000110011000010100
000110010111101100
000110010111000011
000110010110011011
000110010101110010
000110010101001010
000110010100100010
000110010011111010
000110010011010011
000110010010101011
000110010010000011
000110010001011100
000110010000110101
000110010000001110
000110001111100111
000110001111000000
000110001110011001
000110001101110010
000110001101001100
000110001100100101
000110001011111111
000110001011011001
000110001010110010
000110001010001100
000110001001100111
000110001001000001
000110001000011011
000110000111110110
000110000111010000
000110000110101011
000110000110000110
000110000101100000
000110000100111100
000110000100010111
000110000011110010
000110000011001101
000110000010101001
000110000010000100
000110000001100000
000110000000111100
000110000000011000
000101111111110100
000101111111010000
000101111110101100
000101111110001000
000101111101100100
000101111101000001
000101111100011110
000101111011111010
000101111011010111
000101111010110100
000101111010010001
000101111001101110
000101111001001011
000101111000101001
000101111000000110
000101110111100100
000101110111000001
000101110110011111
000101110101111101
000101110101011011
000101110100111001
000101110100010111
000101110011110101
000101110011010011
000101110010110010
000101110010010000
000101110001101111
000101110001001101
000101110000101100
000101110000001011
000101101111101010
000101101111001001
000101101110101000
000101101110000111
000101101101100111
000101101101000110
000101101100100110
000101101100000101
000101101011100101
000101101011000101
000101101010100101
000101101010000100
000101101001100100
000101101001000101
000101101000100101
000101101000000101
000101100111100110
000101100111000110
000101100110100111
000101100110000111
000101100101101000
000101100101001001
000101100100101010
000101100100001011
000101100011101100
000101100011001101
000101100010101110
000101100010001111
000101100001110001
000101100001010010
000101100000110100
000101100000010110
000101011111110111
000101011111011001
000101011110111011
000101011110011101
000101011101111111
000101011101100001
000101011101000011
000101011100100110
000101011100001000
000101011011101010
000101011011001101
000101011010110000
000101011010010010
000101011001110101
000101011001011000
000101011000111011
000101011000011110
000101011000000001
000101010111100100
000101010111000111
000101010110101011
000101010110001110
000101010101110001
000101010101010101
000101010100111000
000101010100011100
000101010100000000
000101010011100100
000101010011001000
000101010010101011
000101010010010000
000101010001110100
000101010001011000
000101010000111100
000101010000100000
000101010000000101
000101001111101001
000101001111001110
000101001110110010
000101001110010111
000101001101111100
000101001101100001
000101001101000101
000101001100101010
000101001100001111
000101001011110100
000101001011011010
000101001010111111
000101001010100100
000101001010001001
000101001001101111
000101001001010100
000101001000111010
000101001000100000
000101001000000101
000101000111101011
000101000111010001
000101000110110111
000101000110011101
000101000110000011
000101000101101001
000101000101001111
000101000100110101
000101000100011011
000101000100000010
000101000011101000
000101000011001111
000101000010110101
000101000010011100
000101000010000010
000101000001101001
000101000001010000
000101000000110111
000101000000011110
000101000000000101
000100111111101100
000100111111010011
000100111110111010
000100111110100001
000100111110001000
000100111101110000
000100111101010111
000100111100111110
000100111100100110
000100111100001101
000100111011110101
000100111011011101
000100111011000100
000100111010101100
000100111010010100
000100111001111100
000100111001100100
000100111001001100
000100111000110100
000100111000011100
000100111000000100
000100110111101101
000100110111010101
000100110110111101
000100110110100110
000100110110001110
000100110101110111
000100110101011111
000100110101001000
000100110100110001
000100110100011001
000100110100000010
000100110011101011
000100110011010100
000100110010111101
000100110010100110
000100110010001111
000100110001111000
000100110001100001
000100110001001011
000100110000110100
000100110000011101
000100110000000111
000100101111110000
000100101111011010
000100101111000011
000100101110101101
000100101110010110
000100101110000000
000100101101101010
000100101101010100
000100101100111110
000100101100100111
000100101100010001
000100101011111011
000100101011100101
000100101011010000
000100101010111010
000100101010100100
000100101010001110
000100101001111001
000100101001100011
000100101001001101
000100101000111000
000100101000100010
000100101000001101
000100100111110111
000100100111100010
000100100111001101
000100100110111000
000100100110100010
000100100110001101
000100100101111000
000100100101100011
000100100101001110
000100100100111001
000100100100100100
000100100100001111
000100100011111010
000100100011100110
000100100011010001
000100100010111100
000100100010101000
000100100010010011
000100100001111110
000100100001101010
000100100001010101
000100100001000001
000100100000101101
000100100000011000
000100100000000100
000100011111110000
000100011111011100
000100011111000111
000100011110110011
000100011110011111
000100011110001011
000100011101110111
000100011101100011
000100011101001111
000100011100111100
000100011100101000
000100011100010100
000100011100000000
000100011011101101
000100011011011001
000100011011000101
000100011010110010
000100011010011110
000100011010001011
000100011001111000
000100011001100100
000100011001010001
000100011000111110
000100011000101010
000100011000010111
000100011000000100
000100010111110001
000100010111011110
000100010111001011
000100010110111000
000100010110100101
000100010110010010
000100010101111111
000100010101101100
000100010101011001
000100010101000110
000100010100110100
000100010100100001
000100010100001110
000100010011111100
000100010011101001
000100010011010111
000100010011000100
000100010010110010
000100010010011111
000100010010001101
000100010001111011
000100010001101000
000100010001010110
000100010001000100
000100010000110010
000100010000011111
000100010000001101
000100001111111011
000100001111101001
000100001111010111
000100001111000101
000100001110110011
000100001110100001
000100001110010000
000100001101111110
000100001101101100
000100001101011010
000100001101001001
000100001100110111
000100001100100101
000100001100010100
000100001100000010
000100001011110001
000100001011011111
000100001011001110
000100001010111100
000100001010101011
000100001010011010
000100001010001000
000100001001110111
000100001001100110
000100001001010100
000100001001000011
000100001000110010
000100001000100001
000100001000010000
000100000111111111
000100000111101110
000100000111011101
000100000111001100
000100000110111011
000100000110101010
000100000110011010
000100000110001001
000100000101111000
000100000101100111
000100000101010111
000100000101000110
000100000100110101
000100000100100101
000100000100010100
000100000100000100
000100000011110011
000100000011100011
000100000011010010
000100000011000010
000100000010110001
000100000010100001
000100000010010001
000100000010000001
000100000001110000
000100000001100000
000100000001010000
000100000001000000
000100000000110000
000100000000100000
000100000000010000
