111111111111111111
000100000000000000
000010000000000000
000001010101010101
000001000000000000
000000110011001100
000000101010101010
000000100100100100
000000100000000000
000000011100011100
000000011001100110
000000010111010001
000000010101010101
000000010011101100
000000010010010010
000000010001000100
000000010000000000
000000001111000011
000000001110001110
000000001101011110
000000001100110011
000000001100001100
000000001011101000
000000001011001000
000000001010101010
000000001010001111
000000001001110110
000000001001011110
000000001001001001
000000001000110100
000000001000100010
000000001000010000
000000001000000000
000000000111110000
000000000111100001
000000000111010100
000000000111000111
000000000110111010
000000000110101111
000000000110100100
000000000110011001
000000000110001111
000000000110000110
000000000101111101
000000000101110100
000000000101101100
000000000101100100
000000000101011100
000000000101010101
000000000101001110
000000000101000111
000000000101000001
000000000100111011
000000000100110101
000000000100101111
000000000100101001
000000000100100100
000000000100011111
000000000100011010
000000000100010101
000000000100010001
000000000100001100
000000000100001000
000000000100000100
000000000100000000
000000000011111100
000000000011111000
000000000011110100
000000000011110000
000000000011101101
000000000011101010
000000000011100110
000000000011100011
000000000011100000
000000000011011101
000000000011011010
000000000011010111
000000000011010100
000000000011010010
000000000011001111
000000000011001100
000000000011001010
000000000011000111
000000000011000101
000000000011000011
000000000011000000
000000000010111110
000000000010111100
000000000010111010
000000000010111000
000000000010110110
000000000010110100
000000000010110010
000000000010110000
000000000010101110
000000000010101100
000000000010101010
000000000010101000
000000000010100111
000000000010100101
000000000010100011
000000000010100010
000000000010100000
000000000010011111
000000000010011101
000000000010011100
000000000010011010
000000000010011001
000000000010010111
000000000010010110
000000000010010100
000000000010010011
000000000010010010
000000000010010000
000000000010001111
000000000010001110
000000000010001101
000000000010001100
000000000010001010
000000000010001001
000000000010001000
000000000010000111
000000000010000110
000000000010000101
000000000010000100
000000000010000011
000000000010000010
000000000010000001
000000000010000000
000000000001111111
000000000001111110
000000000001111101
000000000001111100
000000000001111011
000000000001111010
000000000001111001
000000000001111000
000000000001110111
000000000001110110
000000000001110101
000000000001110101
000000000001110100
000000000001110011
000000000001110010
000000000001110001
000000000001110000
000000000001110000
000000000001101111
000000000001101110
000000000001101101
000000000001101101
000000000001101100
000000000001101011
000000000001101011
000000000001101010
000000000001101001
000000000001101001
000000000001101000
000000000001100111
000000000001100111
000000000001100110
000000000001100101
000000000001100101
000000000001100100
000000000001100011
000000000001100011
000000000001100010
000000000001100010
000000000001100001
000000000001100000
000000000001100000
000000000001011111
000000000001011111
000000000001011110
000000000001011110
000000000001011101
000000000001011101
000000000001011100
000000000001011100
000000000001011011
000000000001011011
000000000001011010
000000000001011010
000000000001011001
000000000001011001
000000000001011000
000000000001011000
000000000001010111
000000000001010111
000000000001010110
000000000001010110
000000000001010101
000000000001010101
000000000001010100
000000000001010100
000000000001010100
000000000001010011
000000000001010011
000000000001010010
000000000001010010
000000000001010001
000000000001010001
000000000001010001
000000000001010000
000000000001010000
000000000001001111
000000000001001111
000000000001001111
000000000001001110
000000000001001110
000000000001001110
000000000001001101
000000000001001101
000000000001001100
000000000001001100
000000000001001100
000000000001001011
000000000001001011
000000000001001011
000000000001001010
000000000001001010
000000000001001010
000000000001001001
000000000001001001
000000000001001001
000000000001001000
000000000001001000
000000000001001000
000000000001000111
000000000001000111
000000000001000111
000000000001000110
000000000001000110
000000000001000110
000000000001000110
000000000001000101
000000000001000101
000000000001000101
000000000001000100
000000000001000100
000000000001000100
000000000001000011
000000000001000011
000000000001000011
000000000001000011
000000000001000010
000000000001000010
000000000001000010
000000000001000010
000000000001000001
000000000001000001
000000000001000001
000000000001000001
000000000001000000
000000000001000000
000000000001000000
000000000001000000
000000000000111111
000000000000111111
000000000000111111
000000000000111111
000000000000111110
000000000000111110
000000000000111110
000000000000111110
000000000000111101
000000000000111101
000000000000111101
000000000000111101
000000000000111100
000000000000111100
000000000000111100
000000000000111100
000000000000111100
000000000000111011
000000000000111011
000000000000111011
000000000000111011
000000000000111010
000000000000111010
000000000000111010
000000000000111010
000000000000111010
000000000000111001
000000000000111001
000000000000111001
000000000000111001
000000000000111001
000000000000111000
000000000000111000
000000000000111000
000000000000111000
000000000000111000
000000000000110111
000000000000110111
000000000000110111
000000000000110111
000000000000110111
000000000000110110
000000000000110110
000000000000110110
000000000000110110
000000000000110110
000000000000110110
000000000000110101
000000000000110101
000000000000110101
000000000000110101
000000000000110101
000000000000110101
000000000000110100
000000000000110100
000000000000110100
000000000000110100
000000000000110100
000000000000110100
000000000000110011
000000000000110011
000000000000110011
000000000000110011
000000000000110011
000000000000110011
000000000000110010
000000000000110010
000000000000110010
000000000000110010
000000000000110010
000000000000110010
000000000000110001
000000000000110001
000000000000110001
000000000000110001
000000000000110001
000000000000110001
000000000000110001
000000000000110000
000000000000110000
000000000000110000
000000000000110000
000000000000110000
000000000000110000
000000000000110000
000000000000101111
000000000000101111
000000000000101111
000000000000101111
000000000000101111
000000000000101111
000000000000101111
000000000000101110
000000000000101110
000000000000101110
000000000000101110
000000000000101110
000000000000101110
000000000000101110
000000000000101110
000000000000101101
000000000000101101
000000000000101101
000000000000101101
000000000000101101
000000000000101101
000000000000101101
000000000000101101
000000000000101100
000000000000101100
000000000000101100
000000000000101100
000000000000101100
000000000000101100
000000000000101100
000000000000101100
000000000000101011
000000000000101011
000000000000101011
000000000000101011
000000000000101011
000000000000101011
000000000000101011
000000000000101011
000000000000101011
000000000000101010
000000000000101010
000000000000101010
000000000000101010
000000000000101010
000000000000101010
000000000000101010
000000000000101010
000000000000101010
000000000000101001
000000000000101001
000000000000101001
000000000000101001
000000000000101001
000000000000101001
000000000000101001
000000000000101001
000000000000101001
000000000000101000
000000000000101000
000000000000101000
000000000000101000
000000000000101000
000000000000101000
000000000000101000
000000000000101000
000000000000101000
000000000000101000
000000000000100111
000000000000100111
000000000000100111
000000000000100111
000000000000100111
000000000000100111
000000000000100111
000000000000100111
000000000000100111
000000000000100111
000000000000100111
000000000000100110
000000000000100110
000000000000100110
000000000000100110
000000000000100110
000000000000100110
000000000000100110
000000000000100110
000000000000100110
000000000000100110
000000000000100110
000000000000100101
000000000000100101
000000000000100101
000000000000100101
000000000000100101
000000000000100101
000000000000100101
000000000000100101
000000000000100101
000000000000100101
000000000000100101
000000000000100100
000000000000100100
000000000000100100
000000000000100100
000000000000100100
000000000000100100
000000000000100100
000000000000100100
000000000000100100
000000000000100100
000000000000100100
000000000000100100
000000000000100100
000000000000100011
000000000000100011
000000000000100011
000000000000100011
000000000000100011
000000000000100011
000000000000100011
000000000000100011
000000000000100011
000000000000100011
000000000000100011
000000000000100011
000000000000100011
000000000000100010
000000000000100010
000000000000100010
000000000000100010
000000000000100010
000000000000100010
000000000000100010
000000000000100010
000000000000100010
000000000000100010
000000000000100010
000000000000100010
000000000000100010
000000000000100001
000000000000100001
000000000000100001
000000000000100001
000000000000100001
000000000000100001
000000000000100001
000000000000100001
000000000000100001
000000000000100001
000000000000100001
000000000000100001
000000000000100001
000000000000100001
000000000000100001
000000000000100000
000000000000100000
000000000000100000
000000000000100000
000000000000100000
000000000000100000
000000000000100000
000000000000100000
000000000000100000
000000000000100000
000000000000100000
000000000000100000
000000000000100000
000000000000100000
000000000000100000
000000000000100000
000000000000011111
000000000000011111
000000000000011111
000000000000011111
000000000000011111
000000000000011111
000000000000011111
000000000000011111
000000000000011111
000000000000011111
000000000000011111
000000000000011111
000000000000011111
000000000000011111
000000000000011111
000000000000011111
000000000000011110
000000000000011110
000000000000011110
000000000000011110
000000000000011110
000000000000011110
000000000000011110
000000000000011110
000000000000011110
000000000000011110
000000000000011110
000000000000011110
000000000000011110
000000000000011110
000000000000011110
000000000000011110
000000000000011110
000000000000011110
000000000000011101
000000000000011101
000000000000011101
000000000000011101
000000000000011101
000000000000011101
000000000000011101
000000000000011101
000000000000011101
000000000000011101
000000000000011101
000000000000011101
000000000000011101
000000000000011101
000000000000011101
000000000000011101
000000000000011101
000000000000011101
000000000000011100
000000000000011100
000000000000011100
000000000000011100
000000000000011100
000000000000011100
000000000000011100
000000000000011100
000000000000011100
000000000000011100
000000000000011100
000000000000011100
000000000000011100
000000000000011100
000000000000011100
000000000000011100
000000000000011100
000000000000011100
000000000000011100
000000000000011100
000000000000011100
000000000000011011
000000000000011011
000000000000011011
000000000000011011
000000000000011011
000000000000011011
000000000000011011
000000000000011011
000000000000011011
000000000000011011
000000000000011011
000000000000011011
000000000000011011
000000000000011011
000000000000011011
000000000000011011
000000000000011011
000000000000011011
000000000000011011
000000000000011011
000000000000011011
000000000000011010
000000000000011010
000000000000011010
000000000000011010
000000000000011010
000000000000011010
000000000000011010
000000000000011010
000000000000011010
000000000000011010
000000000000011010
000000000000011010
000000000000011010
000000000000011010
000000000000011010
000000000000011010
000000000000011010
000000000000011010
000000000000011010
000000000000011010
000000000000011010
000000000000011010
000000000000011010
000000000000011010
000000000000011001
000000000000011001
000000000000011001
000000000000011001
000000000000011001
000000000000011001
000000000000011001
000000000000011001
000000000000011001
000000000000011001
000000000000011001
000000000000011001
000000000000011001
000000000000011001
000000000000011001
000000000000011001
000000000000011001
000000000000011001
000000000000011001
000000000000011001
000000000000011001
000000000000011001
000000000000011001
000000000000011001
000000000000011001
000000000000011000
000000000000011000
000000000000011000
000000000000011000
000000000000011000
000000000000011000
000000000000011000
000000000000011000
000000000000011000
000000000000011000
000000000000011000
000000000000011000
000000000000011000
000000000000011000
000000000000011000
000000000000011000
000000000000011000
000000000000011000
000000000000011000
000000000000011000
000000000000011000
000000000000011000
000000000000011000
000000000000011000
000000000000011000
000000000000011000
000000000000011000
000000000000010111
000000000000010111
000000000000010111
000000000000010111
000000000000010111
000000000000010111
000000000000010111
000000000000010111
000000000000010111
000000000000010111
000000000000010111
000000000000010111
000000000000010111
000000000000010111
000000000000010111
000000000000010111
000000000000010111
000000000000010111
000000000000010111
000000000000010111
000000000000010111
000000000000010111
000000000000010111
000000000000010111
000000000000010111
000000000000010111
000000000000010111
000000000000010111
000000000000010111
000000000000010111
000000000000010110
000000000000010110
000000000000010110
000000000000010110
000000000000010110
000000000000010110
000000000000010110
000000000000010110
000000000000010110
000000000000010110
000000000000010110
000000000000010110
000000000000010110
000000000000010110
000000000000010110
000000000000010110
000000000000010110
000000000000010110
000000000000010110
000000000000010110
000000000000010110
000000000000010110
000000000000010110
000000000000010110
000000000000010110
000000000000010110
000000000000010110
000000000000010110
000000000000010110
000000000000010110
000000000000010110
000000000000010110
000000000000010101
000000000000010101
000000000000010101
000000000000010101
000000000000010101
000000000000010101
000000000000010101
000000000000010101
000000000000010101
000000000000010101
000000000000010101
000000000000010101
000000000000010101
000000000000010101
000000000000010101
000000000000010101
000000000000010101
000000000000010101
000000000000010101
000000000000010101
000000000000010101
000000000000010101
000000000000010101
000000000000010101
000000000000010101
000000000000010101
000000000000010101
000000000000010101
000000000000010101
000000000000010101
000000000000010101
000000000000010101
000000000000010101
000000000000010101
000000000000010101
000000000000010101
000000000000010100
000000000000010100
000000000000010100
000000000000010100
000000000000010100
000000000000010100
000000000000010100
000000000000010100
000000000000010100
000000000000010100
000000000000010100
000000000000010100
000000000000010100
000000000000010100
000000000000010100
000000000000010100
000000000000010100
000000000000010100
000000000000010100
000000000000010100
000000000000010100
000000000000010100
000000000000010100
000000000000010100
000000000000010100
000000000000010100
000000000000010100
000000000000010100
000000000000010100
000000000000010100
000000000000010100
000000000000010100
000000000000010100
000000000000010100
000000000000010100
000000000000010100
000000000000010100
000000000000010100
000000000000010100
000000000000010011
000000000000010011
000000000000010011
000000000000010011
000000000000010011
000000000000010011
000000000000010011
000000000000010011
000000000000010011
000000000000010011
000000000000010011
000000000000010011
000000000000010011
000000000000010011
000000000000010011
000000000000010011
000000000000010011
000000000000010011
000000000000010011
000000000000010011
000000000000010011
000000000000010011
000000000000010011
000000000000010011
000000000000010011
000000000000010011
000000000000010011
000000000000010011
000000000000010011
000000000000010011
000000000000010011
000000000000010011
000000000000010011
000000000000010011
000000000000010011
000000000000010011
000000000000010011
000000000000010011
000000000000010011
000000000000010011
000000000000010011
000000000000010011
000000000000010011
000000000000010010
000000000000010010
000000000000010010
000000000000010010
000000000000010010
000000000000010010
000000000000010010
000000000000010010
000000000000010010
000000000000010010
000000000000010010
000000000000010010
000000000000010010
000000000000010010
000000000000010010
000000000000010010
000000000000010010
000000000000010010
000000000000010010
000000000000010010
000000000000010010
000000000000010010
000000000000010010
000000000000010010
000000000000010010
000000000000010010
000000000000010010
000000000000010010
000000000000010010
000000000000010010
000000000000010010
000000000000010010
000000000000010010
000000000000010010
000000000000010010
000000000000010010
000000000000010010
000000000000010010
000000000000010010
000000000000010010
000000000000010010
000000000000010010
000000000000010010
000000000000010010
000000000000010010
000000000000010010
000000000000010010
000000000000010010
000000000000010001
000000000000010001
000000000000010001
000000000000010001
000000000000010001
000000000000010001
000000000000010001
000000000000010001
000000000000010001
000000000000010001
000000000000010001
000000000000010001
000000000000010001
000000000000010001
000000000000010001
000000000000010001
000000000000010001
000000000000010001
000000000000010001
000000000000010001
000000000000010001
000000000000010001
000000000000010001
000000000000010001
000000000000010001
000000000000010001
000000000000010001
000000000000010001
000000000000010001
000000000000010001
000000000000010001
000000000000010001
000000000000010001
000000000000010001
000000000000010001
000000000000010001
000000000000010001
000000000000010001
000000000000010001
000000000000010001
000000000000010001
000000000000010001
000000000000010001
000000000000010001
000000000000010001
000000000000010001
000000000000010001
000000000000010001
000000000000010001
000000000000010001
000000000000010001
000000000000010001
000000000000010001
000000000000010000
000000000000010000
000000000000010000
000000000000010000
000000000000010000
000000000000010000
000000000000010000
000000000000010000
000000000000010000
000000000000010000
000000000000010000
000000000000010000
000000000000010000
000000000000010000
000000000000010000
000000000000010000
000000000000010000
000000000000010000
000000000000010000
000000000000010000
000000000000010000
000000000000010000
000000000000010000
000000000000010000
000000000000010000
000000000000010000
000000000000010000
000000000000010000
000000000000010000
000000000000010000
000000000000010000
000000000000010000
000000000000010000
000000000000010000
000000000000010000
000000000000010000
000000000000010000
000000000000010000
000000000000010000
000000000000010000
000000000000010000
000000000000010000
000000000000010000
000000000000010000
000000000000010000
000000000000010000
000000000000010000
000000000000010000
000000000000010000
000000000000010000
000000000000010000
000000000000010000
000000000000010000
000000000000010000
000000000000010000
000000000000010000
000000000000010000
000000000000010000
000000000000010000
000000000000010000
