00400
00AE0
01D8E
05058
0DA65
1FFFF
1FFFF
1FFFF
1FFFF
1FFFF
1FFFF
1FFFF
1FFFF
1FFFF
1FFFF
1FFFF
1FFFF
1FFFF
1FFFF
1FFFF
1FFFF
1FFFF
1FFFF
1FFFF
1FFFF
1FFFF
1FFFF
1FFFF
1FFFF
1FFFF
1FFFF
1FFFF
1FFFF
1FFFF
1FFFF
1FFFF
1FFFF
1FFFF
1FFFF
1FFFF
1FFFF
1FFFF
1FFFF
1FFFF
1FFFF
1FFFF
1FFFF
1FFFF
1FFFF
1FFFF
1FFFF
1FFFF
1FFFF
1FFFF
1FFFF
1FFFF
1FFFF
1FFFF
1FFFF
1FFFF
1FFFF
1FFFF
1FFFF
1FFFF
1FFFF
1FFFF
1FFFF
1FFFF
1FFFF
1FFFF
1FFFF
1FFFF
1FFFF
1FFFF
1FFFF
1FFFF
1FFFF
1FFFF
1FFFF
1FFFF
1FFFF
1FFFF
1FFFF
1FFFF
1FFFF
1FFFF
1FFFF
1FFFF
1FFFF
1FFFF
1FFFF
1FFFF
1FFFF
1FFFF
1FFFF
1FFFF
1FFFF
1FFFF
1FFFF
1FFFF
1FFFF
1FFFF
1FFFF
1FFFF
1FFFF
1FFFF
1FFFF
1FFFF
1FFFF
1FFFF
1FFFF
1FFFF
1FFFF
1FFFF
1FFFF
1FFFF
1FFFF
1FFFF
1FFFF
1FFFF
1FFFF
1FFFF
1FFFF
1FFFF
1FFFF
1FFFF
1FFFF
1FFFF
1FFFF
1FFFF
1FFFF
1FFFF
1FFFF
1FFFF
1FFFF
1FFFF
1FFFF
1FFFF
1FFFF
1FFFF
1FFFF
1FFFF
1FFFF
1FFFF
1FFFF
1FFFF
1FFFF
1FFFF
1FFFF
1FFFF
1FFFF
1FFFF
1FFFF
1FFFF
1FFFF
1FFFF
1FFFF
1FFFF
1FFFF
1FFFF
1FFFF
1FFFF
1FFFF
1FFFF
1FFFF
1FFFF
1FFFF
1FFFF
1FFFF
1FFFF
1FFFF
1FFFF
1FFFF
1FFFF
1FFFF
1FFFF
1FFFF
1FFFF
1FFFF
1FFFF
1FFFF
1FFFF
1FFFF
1FFFF
1FFFF
1FFFF
1FFFF
1FFFF
1FFFF
1FFFF
1FFFF
1FFFF
1FFFF
1FFFF
1FFFF
1FFFF
1FFFF
1FFFF
1FFFF
1FFFF
1FFFF
1FFFF
1FFFF
1FFFF
1FFFF
1FFFF
1FFFF
1FFFF
1FFFF
1FFFF
1FFFF
1FFFF
1FFFF
1FFFF
1FFFF
1FFFF
1FFFF
1FFFF
1FFFF
1FFFF
1FFFF
1FFFF
1FFFF
1FFFF
1FFFF
1FFFF
1FFFF
1FFFF
1FFFF
1FFFF
1FFFF
1FFFF
1FFFF
1FFFF
1FFFF
1FFFF
1FFFF
1FFFF
1FFFF
1FFFF
1FFFF
1FFFF
1FFFF
1FFFF
1FFFF
1FFFF
1FFFF
1FFFF
1FFFF
1FFFF
1FFFF
1FFFF
1FFFF
1FFFF
1FFFF
1FFFF
1FFFF
1FFFF
1FFFF
1FFFF
1FFFF
1FFFF
1FFFF
1FFFF
1FFFF
1FFFF
1FFFF
1FFFF
1FFFF
1FFFF
1FFFF
1FFFF
1FFFF
1FFFF
1FFFF
1FFFF
1FFFF
1FFFF
1FFFF
1FFFF
1FFFF
1FFFF
1FFFF
1FFFF
1FFFF
1FFFF
1FFFF
1FFFF
1FFFF
1FFFF
1FFFF
1FFFF
1FFFF
1FFFF
1FFFF
1FFFF
1FFFF
1FFFF
1FFFF
1FFFF
1FFFF
1FFFF
1FFFF
1FFFF
1FFFF
1FFFF
1FFFF
1FFFF
1FFFF
1FFFF
1FFFF
1FFFF
1FFFF
1FFFF
1FFFF
1FFFF
1FFFF
1FFFF
1FFFF
1FFFF
1FFFF
1FFFF
1FFFF
1FFFF
1FFFF
1FFFF
1FFFF
1FFFF
1FFFF
1FFFF
1FFFF
1FFFF
1FFFF
1FFFF
1FFFF
1FFFF
1FFFF
1FFFF
1FFFF
1FFFF
1FFFF
1FFFF
1FFFF
1FFFF
1FFFF
1FFFF
1FFFF
1FFFF
1FFFF
1FFFF
1FFFF
1FFFF
1FFFF
1FFFF
1FFFF
1FFFF
1FFFF
1FFFF
1FFFF
1FFFF
1FFFF
1FFFF
1FFFF
1FFFF
1FFFF
1FFFF
1FFFF
1FFFF
1FFFF
1FFFF
1FFFF
1FFFF
1FFFF
1FFFF
1FFFF
1FFFF
1FFFF
1FFFF
1FFFF
1FFFF
1FFFF
1FFFF
1FFFF
1FFFF
1FFFF
1FFFF
1FFFF
1FFFF
1FFFF
1FFFF
1FFFF
1FFFF
1FFFF
1FFFF
1FFFF
1FFFF
1FFFF
1FFFF
1FFFF
1FFFF
1FFFF
1FFFF
1FFFF
1FFFF
1FFFF
1FFFF
1FFFF
1FFFF
1FFFF
1FFFF
1FFFF
1FFFF
1FFFF
1FFFF
1FFFF
1FFFF
1FFFF
1FFFF
1FFFF
1FFFF
1FFFF
1FFFF
1FFFF
1FFFF
1FFFF
1FFFF
1FFFF
1FFFF
1FFFF
1FFFF
1FFFF
1FFFF
1FFFF
1FFFF
1FFFF
1FFFF
1FFFF
1FFFF
1FFFF
1FFFF
1FFFF
1FFFF
1FFFF
1FFFF
1FFFF
1FFFF
1FFFF
1FFFF
1FFFF
1FFFF
1FFFF
1FFFF
1FFFF
1FFFF
1FFFF
1FFFF
1FFFF
1FFFF
1FFFF
1FFFF
1FFFF
1FFFF
1FFFF
1FFFF
1FFFF
1FFFF
1FFFF
1FFFF
1FFFF
1FFFF
1FFFF
1FFFF
1FFFF
1FFFF
1FFFF
1FFFF
1FFFF
1FFFF
1FFFF
1FFFF
1FFFF
1FFFF
1FFFF
1FFFF
1FFFF
1FFFF
1FFFF
1FFFF
1FFFF
1FFFF
1FFFF
1FFFF
1FFFF
1FFFF
1FFFF
1FFFF
1FFFF
1FFFF
1FFFF
1FFFF
1FFFF
1FFFF
1FFFF
1FFFF
1FFFF
1FFFF
1FFFF
1FFFF
1FFFF
1FFFF
1FFFF
1FFFF
00000
00000
00000
00000
00000
00000
00000
00000
00000
00000
00000
00000
00000
00000
00000
00000
00000
00000
00000
00000
00000
00000
00000
00000
00000
00000
00000
00000
00000
00000
00000
00000
00000
00000
00000
00000
00000
00000
00000
00000
00000
00000
00000
00000
00000
00000
00000
00000
00000
00000
00000
00000
00000
00000
00000
00000
00000
00000
00000
00000
00000
00000
00000
00000
00000
00000
00000
00000
00000
00000
00000
00000
00000
00000
00000
00000
00000
00000
00000
00000
00000
00000
00000
00000
00000
00000
00000
00000
00000
00000
00000
00000
00000
00000
00000
00000
00000
00000
00000
00000
00000
00000
00000
00000
00000
00000
00000
00000
00000
00000
00000
00000
00000
00000
00000
00000
00000
00000
00000
00000
00000
00000
00000
00000
00000
00000
00000
00000
00000
00000
00000
00000
00000
00000
00000
00000
00000
00000
00000
00000
00000
00000
00000
00000
00000
00000
00000
00000
00000
00000
00000
00000
00000
00000
00000
00000
00000
00000
00000
00000
00000
00000
00000
00000
00000
00000
00000
00000
00000
00000
00000
00000
00000
00000
00000
00000
00000
00000
00000
00000
00000
00000
00000
00000
00000
00000
00000
00000
00000
00000
00000
00000
00000
00000
00000
00000
00000
00000
00000
00000
00000
00000
00000
00000
00000
00000
00000
00000
00000
00000
00000
00000
00000
00000
00000
00000
00000
00000
00000
00000
00000
00000
00000
00000
00000
00000
00000
00000
00000
00000
00000
00000
00000
00000
00000
00000
00000
00000
00000
00000
00000
00000
00000
00000
00000
00000
00000
00000
00000
00000
00000
00000
00000
00000
00000
00000
00000
00000
00000
00000
00000
00000
00000
00000
00000
00000
00000
00000
00000
00000
00000
00000
00000
00000
00000
00000
00000
00000
00000
00000
00000
00000
00000
00000
00000
00000
00000
00000
00000
00000
00000
00000
00000
00000
00000
00000
00000
00000
00000
00000
00000
00000
00000
00000
00000
00000
00000
00000
00000
00000
00000
00000
00000
00000
00000
00000
00000
00000
00000
00000
00000
00000
00000
00000
00000
00000
00000
00000
00000
00000
00000
00000
00000
00000
00000
00000
00000
00000
00000
00000
00000
00000
00000
00000
00000
00000
00000
00000
00000
00000
00000
00000
00000
00000
00000
00000
00000
00000
00000
00000
00000
00000
00000
00000
00000
00000
00000
00000
00000
00000
00000
00000
00000
00000
00000
00000
00000
00000
00000
00000
00000
00000
00000
00000
00000
00000
00000
00000
00000
00000
00000
00000
00000
00000
00000
00000
00000
00000
00000
00000
00000
00000
00000
00000
00000
00000
00000
00000
00000
00000
00000
00000
00000
00000
00000
00000
00000
00000
00000
00000
00000
00000
00000
00000
00000
00000
00000
00000
00000
00000
00000
00000
00000
00000
00000
00000
00000
00000
00000
00000
00000
00000
00000
00000
00000
00000
00000
00000
00000
00000
00000
00000
00000
00000
00000
00000
00000
00000
00000
00000
00000
00000
00000
00000
00000
00000
00000
00000
00000
00000
00000
00000
00000
00000
00000
00000
00000
00000
00000
00000
00000
00000
00000
00000
00000
00000
00000
00000
00000
00000
00000
00000
00000
00000
00000
00000
00000
00000
00000
00000
00000
00000
00000
00000
00000
00001
00003
00007
00013
00033
0008B
00179