0000001101011110
0000001100101001
0000001010011000
0000000001001000
0000000110100010
0000000000000000
1111111001111010
0000000111100101
0000000000000100
0000001110011101
0000000110100111
0000000100101010
0000000010111111
0000001100011001
0000001111101100
1111111111011110
0000000010001011
1111110111111000
0000000100011110
1111111101011000
0000000001110101
0000000111011001
0000000000110111
1111111011100010
0000001101110011
1111111111111011
0000000110111011
0000000001101111
0000000111001100
0000000100010100
0000001000000111
