0000000011110000
1111111101000000
0000000000100001
1111111111001111
1111111010000001
0000001010010110
0000000000110011
0000000101000000
0000000101011010
1111111110000110
1111111110010101
1111111111111100
0000000001000011
0000000011001000
0000000000011011
0000000100001001
1111111111011000
1111111110010001
1111111011000010
0000000010001001
0000000101000010
0000000000111110
1111110110010001
0000000011011010
0000000000011111
0000000001110010
0000000101011001
1111110111111011
0000000111010111
0000000010010100
0000001001011100
1111111101110010
0000000111110101
0000001110110111
1111111110110100
0000000001101101
0000000010110011
0000000000101110
1111111111110100
0000000100010001
0000000011011110
1111111111001001
0000001000010101
0000001011110111
0000000011010001
0000000011000010
0000001011000111
1111111111010000
1111111111000010
1111111010011111
1111111100001011
0000000011001011
1111111101011101
0000000011111001
0000001000111101
1111111111000110
1111111011001100
0000000010001111
0000001111011010
1111111111111100
0000000000010010
1111110110100000
1111111001001110
0000000011001110
1111101010110100
1111110100011100
1111101101111110
0000000011001001
1111111001010111
0000001100001110
1111111010110001
1111111010011000
0000000000011001
1111101001100101
1111111001011111
1111110011100010
1111111101000011
1111111010010111
1111111001101001
0000000100110011
0000001001011111
0000000011100001
1111110001100010
0000000110011101
0000001010011100
0000000100110111
1111111100010100
0000001010110111
1111110101000001
0000001000100110
0000000111001001
0000000110011110
1111111101100011
1111111111000101
1111111101100010
1111111111111011
1111110000100011
1111110100010101
0000000001001011
1111111101111110
1111111101010001
0000001011110001
0000000111101010
1111111110011000
0000000010100110
1111111011111011
0000000000010110
1111110111100111
1111110011101110
1111111101110000
0000000110000001
0000000111110001
0000000111010101
1111110110011000
1111110111110000
1111111011000111
0000000100110001
1111110110111100
0000000010010000
1111111011101111
1111111011000001
0000000101110000
1111111111100100
0000001010111000
1111111111010001
1111110110110111
1111111101100010
0000000100110001
0000000000110010
0000000101000010
1111111100100000
0000001010110100
0000000011101000
1111111010001000
0000000010110001
0000000101100000
0000001010101100
1111111010000011
1111111111110101
1111111011010101
0000000101111000
0000000100100110
0000000010001011
1111111010010100
1111111011111101
0000000011101111
1111110100011011
0000000010111111
0000000011010111
0000000010111000
1111111010100111
1111111101000010
0000000001110011
1111111001111011
1111111100010010
1111111110101100
1111111000001101
0000000101101001
0000000111111111
1111111100110000
0000000000011000
1111111010011111
1111111001011000
0000001010010100
1111110101110101
0000000000000101
1111111101110100
1111111101000101
0000000010001001
0000000010010100
0000000010001000
0000000100110001
1111111111011110
1111111101000110
1111111011000110
1111111011011101
0000001000111101
0000001000001111
1111111011001111
0000001001000100
0000000010000000
0000000001011111
0000000101011111
0000000110101110
1111111100010110
0000000101110110
1111111101111001
1111111100100001
1111111011101101
1111111010110111
1111111000000101
0000000010010100
1111111111010101
0000001001110000
1111111010100001
1111111101011010
0000000100111011
1111111111011100
0000000111110111
0000000011100100
0000000100000011
0000000110011101
0000001001101011
0000001001011010
0000000011101011
1111111110101101
0000000100100010
1111111001100000
1111110110010011
1111110100101110
0000001001010100
0000001001111001
1111111001101100
0000000010100010
1111111111101111
0000000010100101
0000000011111011
0000001001111110
1111111101001011
0000000000001010
0000001100001000
1111111000011111
1111111101010101
1111110000000001
0000001001000000
0000000100111110
0000001011100111
1111111100111001
0000000011100010
1111111001000001
1111111100000110
1111111100000000
1111111100100110
0000000001111000
0000001000110000
0000000010111001
1111111111001001
0000000001011011
1111111111111110
0000000010110110
1111111011000011
0000000000001010
0000000001111100
0000001001110000
1111111001011100
0000000110111010
0000000010111000
1111111001111001
0000000100101011
1111111001110010
0000000010101010
1111111000100010
0000001001111110
1111111011100101
1111111011010111
1111111000010000
0000010000000100
0000000101100011
0000000010100001
0000000011000100
1111111110111000
1111111110000101
0000001001100000
0000001000110010
1111111111101010
0000000110010011
0000001000011110
1111101011011100
0000010010010101
1111100100000111
1111110100101101
1111111101000100
1111111111010011
0000001010101111
0000000001000111
1111111011101100
0000000100010101
0000001101110110
0000000011111000
1111111110000001
0000000101000100
1111111000100111
1111110110010100
1111110110110111
0000000101011000
0000001110111011
0000000111010111
1111101110000000
1111111001010010
1111110111101110
1111111111011100
0000001100000000
0000000100110011
0000000011110101
1111111000101001
1111110000101011
0000001011000101
1111110110001111
1111111000110100
1111101110111001
1111111101111010
0000000011000011
1111111010110110
1111111010010111
0000001000010101
0000001000100101
1111111110011010
1111111001111000
0000000111010100
0000001101100001
0000000101100100
0000001110001110
1111111000011011
0000001100111101
0000000000110001
0000000001011101
1111111111100110
0000000011011001
1111111101011011
0000000000101010
