11111101101111010
11111110110001010
11111110010111010
11111111101100010
00000000100011111
00000001010000111
00000010100101110
11111110110000111
11111111100100000
11111100101111001
00000001000110110
00000010011101001
11111101010100101
00000010011001000
11111110110000101
00000000100101100
00000000111110110
11111110110100010
11111110000100111
11111111011100100
00000000101110110
11111111001000110
11111111110000000
11111111000001101
11111111001101001
11111111001001011
00000001100000111
00000000110010011
00000001110100100
11111110110111111
11111111100110010
00000001101001000
