1111101101111011
1111110110001011
1111110010111011
1111111101100011
0000000100011111
0000001010000111
0000010100101110
1111110110001000
1111111100100001
1111100101111010
0000001000110110
0000010011101001
1111101010100110
0000010011001000
1111110110000110
0000000100101100
0000000111110110
1111110110100011
1111110000101000
1111111011100101
0000000101110110
1111111001000111
1111111110000001
1111111000001110
1111111001101010
1111111001001100
0000001100000111
0000000110010011
0000001110100100
1111110111000000
1111111100110011
0000001101001000
