037
7C2
7AF
74D
760
0FB
798
057
768
0DA
15E
133
022
59F
7BA
7C8
0B1
05C
079
7A2
11C
004
78A
0FB
7DE
7D5
046
0E5
7B8
11F
631
7D2
07E
01B
7DD
0DE
126
078
749
7CF
04F
0C0
67D
587
079
14F
7BB
09C
7EC
7A2
7CA
080
761
019
75E
10D
75A
7CB
057
0F1
0D7
121
7BA
031
7A9
00C
05A
06E
00D
0B9
0BF
121
778
055
6C5
682
001
5B3
632
05E

