3FDC
3FE9
01D2
3FFD
3FF7
3EE3
0003
0014
3FC5
3F92
004A
3847
3FFD
3FD9
3F4C
0007
0047
3CC4
0043
003C
3D96
0031
3FF7
3F46
0014
3FEF
0253
3FE1
000F
3D76
0008
3FE4
3DAE
002D
0007
38EB
0014
0028
00A8
000C
3F9B
3D0D
0054
001E
3E74
3FF2
3FD3
00C7
0019
3FDD
3F30
3FFD
3FF3
01F7
000C
3FEA
3FC3
3FFD
3FF7
3728
3FFC
3FF2
3FB3
3FFE
000A
3C95
3FFC
3FF0
3E09
3FDF
3FFD
0056
3FC6
3FF7
3DBD
3FED
3FF7
3F43
3FFB
001D
3FAB
3FCD
3FDF
3F02
3FF5
3FC5
3F08
001F
3FEE
3DB3
0003
3FFF
01B6
3FF2
0018
0389
3F4A
009A
3A78
001B
3FC8
0590
3FF8
3FCE
3E1F
002B
0033
2FD1
0016
3F5E
3FA3
3F72
0089
3DB1
000C
0003
013F
0054
3FEA
3B1D
3FF6
0015
3EDA
007B
3F55
051E
0060
00B5
3F2A
3FEC
3E71
00EB
3F98
0023
30CD
3FCF
3FA0
011D
001A
3FF6
3ED8
001D
3FBD
0349
0001
3FE4
01F6
007F
0025
0197
0014
002A
3A38
3FC7
0025
3CDE
0029
3FF8
035A
3FDF
0010
3FFD
3FB2
0007
0070
002E
3FA8
0033
0010
3F4A
064C
0020
0088
056C
3FFE
3FFF
38EA
3EF4
3FAF
3E41
3FFF
3FF6
3D02
3F95
000A
0455
3FCA
0030
3D90
0028
3FD1
3D06
3FCE
3FD3
3A2C
0018
000C
0003
3FF9
3FDF
0126
3FF5
000A
3D1A
3FFB
3FCE
0008
003C
000D
38CD
3FF0
000B
06FB
3FED
3FE3
3F84
0006
0004
3D79
3FEE
3FED
0075
3FFE
3FE5
041F
3FDC
0004
38B2
001F
000E
3039
002F
005A
0837
3FF3
0024
3F39
0008
3FE1
3C12
3FBD
3FE2
01A3
000F
3FED
008F
3FF2
0003
3DF3
3FF6
3FFF
07DF
0006
001A
0190
3FFC
3FEA
02BE
000F
3FD9
3EF8
3FFF
0015
3DCE
0013
002D
3C52
3FFB
0014
3E6F
3FFC
3FF6
3982
0041
3FDA
3DEE
3FC5
0018
3DE4
3FFC
0006
01E5
3FFC
3FF0
0005
000B
3FDE
000B

