054
F5A
ED8
EED
051
FC1
032
FE2
0BF
08F
D2D
043
CA9
00B
E0D
F5A
05E
03D
029
FA6
00A
FB5
0BC
05C
FD2
F74
F9B
F48
F64
01B
FB1
123
FE8
FE9
F55
0E8
FC9
FDA
FB3
004
F25
050
FC1
FC3
FA7
FF2
E33
D2B
0E3
F76
FAA
072
00E
063
FB6
05E
03B
002
028
037
147
FFE
FE9
070
FF4
079
F39
040
041
03A
FE9
00C
FB0
FA2
02D
005
FCD
FEB
F96
FA2
D1B
06F
023
005
FDD
EAF
033
0E1
FB7
057
F1D
E48
FA5
031
01F
FEE
FC8
035
015
FEB
EA2
FC7
F5A
FC8
FC4
F5B
FF5
F72
041
02E
FEE
FE6
FF8
FEC
FE5
077
035
00E
FF1
FFF
069
006
037
025
0A3
F1A
FD6
0DE
FD8
FC9
FAB
010
FA6
FB1
FB4
FDF
EA5
07B
F74
FC1
F67
02E
EE5
D96
E9C
02D
012
EC8
02D
012
095
E83
007
FB4
00B
FAA
047
FCC
F9D
F46
1B7
022
FF3
FC9
064
029
E85
033
01F
00D
FEE
04B
022
02D
02B
02B
FE6
FEB
EAA
FA6
031
02E
FDC
FF5
FD5
FF2
FA6
003
1CF
03C
036
12E
019
05D
FDD
FB1
F05
062
F89
069
FDC
F52
062
F45
067
04B
FF9
FC2
085
04A
F5C
041
039
FA0
FBB
030
F98
04A
FA4
06E
87D
F0D
052
FEB
FE7
FE8
094
F9F
FCB
01A
FCB
00A
F7E
F10
085
FC3
0B0
FEA
065
05C
094
036
11E
009
FF8
F2D
FC4
FC8
F89
00B
FE3
029
152
FD0
01C
FA5
017
F8C
F90
03E
036
01E
004
FE0
069
F85
F29
FDD
ED2
045
F4F
F45
0EA
032
04C
097
049
047
046
F15
E6D
F9C
04D
FB7
FAE
02F
FCA
CDC
9B9
FCD
FF1
FBC
0BB
091
F9B
08C
02F
041
FF6
07D
005
FA1
024
018
FCF
FD1
EF2
109
FAF
F91
FD9
FCE
0F5
F9B
F71
F60
FB4
071
0BA
E2B
018
E99
FA9
03B
FF8
FF0
197
005
F89
017
FE9
F77
FDB
F8A
046
035
FEA
FE0
FF9
F74
E95
F5C
013
FD1
F7A
F68
FD6
E99
F40
FF5
FFB
FB2
026
F94
03F
00A
060
005
EAC
002
E17
061
018
061
FFB
D63
FFE
00E
013
011
023
D0C
DB7
CD0
FCE
011
BA3
F9C
FD8
F8B
F6A
043
002
CD3
FDE
00F
BCB
F58
049
026
FF1
00B
E09
F18
097
FF0
074
F88
07A
059
F42
FA6
FEC
F28
F7B
F1A
F30
FDD
EE5
016
155
FF6
F7C
02F
007
E70
994
D84
002
010
8FF
CE8
DB4
800
013
FE9
FF4
F09
FF3
FE7
006
FF3
003
FE8
025
004
FDD
001
01B
00B
036
E08
002
DA3
F44
B83
923
005
00C
FB4
0B8
D62
00E
FFB
027
FF8
008
F95
001
02E
017
009
03A
057
E2A
C4F
FBF
00F
005
045
FD6
E55
FA6
FA2
015
FB4
FAA
FED
FFA
029
FF9
E92
04E
FE2
FBB
FDA
FE8
FE6
124
EBF
12F
FCB
E70
108
046
020
FDB
FE1
FF4
AE2
148
0E6
018
FE2
057
07F
0C0
DAB
F85
FBB
FD9
B92

