EF601450002022AFFFEFFFD0001000800010051FFFC0004
EDD01D401E8FEA8FF7BFFC3000400010001008B000000AA
2D8FB6F0192FFD1FF85FF670005FFEB00010514001E0038
E86008900040195FFFEFFFE0001000400000033FFFC0008
7B2076AFFEF04A0FFE8FFFD00070004000000590002FFF9
FA9FFDEFFAF0180FFBB00150010FFFF0001FEBFFFC702DF
247FFBCFEC200E4FFFDFFFCFFFFFFFEFFDC000C001B0000
E7AFF4CFD9DFF2BFFFC0002FF200001FFF9000AFEF30000
35DFE8D0321FFE0FFBC0004FE5D0000002A0008FECEFFFD
0B2FFC0FE1C00B5FFFCFFFC0000FFFDFFD8000C001C0000
33EFFFAF736FFFE0000FFFEFFFF0001FFF70005FFFFFFFC
F72002B00D1FFB2FFA20003FFFC000DFF6200070014FFD2
1ACFE9E0074FBA1FFFD000100010002FFEFFFCEFFFDFFAC
0D7015302D5FF56FFF4FFFFFFA8FF92FFFD0041FFFA0017
0F4FFCDFCBA00E7FFFAFFFFFF71FFC2FFF90008FFFAFFA6
150FEDFFF90FBE1FFFE000100010001FFEFFFD9FFFDFFB6
ED3FFAEFA9DFFD80001FFFFFF91FFFC0002001B00000003
11B0034FEAEFE87FFEE000DFFBD001A0028FFFCFFF502C2
F0E00F2FFCA00530001FFFC0002FFFAFFFDFFE8FFFDFFF5
16FFF6CFF210286FFFBFFF80006FF59FFF200010069FFBF
0B4FF8E00C40294FFF5FFFA000AFEE90000FFFD004FFFF3
EED010E000D00750001FFFD0003FFFBFFFDFFE8FFFDFFF5
008FFDF0068FDC5FFFF0004000500000005FFFEFFF7FFFD
199FFF100ACFF3FFFFFFFF80007FF8BFFFF003300FDFF88
FFCFFB40072F90D0002000000030001FFF9000DFFF4FFEF
008003BFDE900DFFFFF0005FFF30002FFF60007000C0005
F74011FFDFBFF75FFFD00060003FFF6FFFC003000740003
FFDFFD50086FA390002000000030001FFF9000DFFF3FFEF
FFEFFE6FFFFFCCA0002FFFF00020000FFFBFFFBFFFF0003
F31FF7F010D005600020005FFFBFF9BFFC900490141FFD2

