051DFED9
1E95FADD
018501DA
1D6800F7
1C89FD4F
05F20503
1A1F05AB
02350047
18910236
13ADFD4B
0707FEBD
1DE60176
04FE023B
1DBC01BA
1D6E0735
1DE401F0
18AEFCEB
1E0DFD10
013C032F
1DED00F2
199AFC46
1E66FE41
17A1FBAA
019BFA0C
1E3D0135
1E33FCED
1E630213
03670302
1D89FE2D
17D509B4
00F908B4
1EB5FD7A

