0001FFFDC
1FE4FFFE9
01F6001D2
007FFFFFD
0025FFFF7
0197FFEE3
001400003
002A00014
1A38FFFC5
1FC7FFF92
00250004A
1CDEFF847
0029FFFFD
1FF8FFFD9
035AFFF4C
1FDF00007
001000047
1FFDFFCC4
1FB200043
00070003C
0070FFD96
002E00031
1FA8FFFF7
0033FFF46
001000014
1F4AFFFEF
064C00253
0020FFFE1
00880000F
056CFFD76
1FFE00008
1FFFFFFE4
18EAFFDAE
1EF40002D
1FAF00007
1E41FF8EB
1FFF00014
1FF600028
1D02000A8
1F950000C
000AFFF9B
0455FFD0D
1FCA00054
00300001E
1D90FFE74
0028FFFF2
1FD1FFFD3
1D06000C7
1FCE00019
1FD3FFFDD
1A2CFFF30
0018FFFFD
000CFFFF3
0003001F7
1FF90000C
1FDFFFFEA
0126FFFC3
1FF5FFFFD
000AFFFF7
1D1AFF728
1FFBFFFFC
1FCEFFFF2
0008FFFB3
003CFFFFE
000D0000A
18CDFFC95
1FF0FFFFC
000BFFFF0
06FBFFE09
1FEDFFFDF
1FE3FFFFD
1F8400056
0006FFFC6
0004FFFF7
1D79FFDBD
1FEEFFFED
1FEDFFFF7
0075FFF43
1FFEFFFFB
1FE50001D
041FFFFAB
1FDCFFFCD
0004FFFDF
18B2FFF02
001FFFFF5
000EFFFC5
1039FFF08
002F0001F
005AFFFEE
0837FFDB3
1FF300003
0024FFFFF
1F39001B6
0008FFFF2
1FE100018
1C1200389
1FBDFFF4A
1FE20009A
01A3FFA78
000F0001B
1FEDFFFC8
008F00590
1FF2FFFF8
0003FFFCE
1DF3FFE1F
1FF60002B
1FFF00033
07DFFEFD1
000600016
001AFFF5E
0190FFFA3
1FFCFFF72
1FEA00089
02BEFFDB1
000F0000C
1FD900003
1EF80013F
1FFF00054
0015FFFEA
1DCEFFB1D
0013FFFF6
002D00015
1C52FFEDA
1FFB0007B
0014FFF55
1E6F0051E
1FFC00060
1FF6000B5
1982FFF2A
0041FFFEC
1FDAFFE71
1DEE000EB
1FC5FFF98
001800023
1DE4FF0CD
1FFCFFFCF
0006FFFA0
01E50011D
1FFC0001A
1FF0FFFF6
0005FFED8
000B0001D
1FDEFFFBD
000B00349

