FDE00017FFFD800054
00FFFF8CFFFC9FFF5A
BCBFFF90FFFABFFED8
F580003E00010FFEED
04900036FFFA600051
0260001EFFFB1FFFC1
FF100004FFFB400032
00BFFFE0FFFDFFFFE2
E0900069FFEA5000BF
F18FFF850007B0008F
097FFF29FFF74FFD2D
FF0FFFDDFFFC100043
074FFED2FFF67FFCA9
F88000450002E0000B
07AFFF4FFFEE5FFE0D
059FFF45FFD96FFF5A
F42000EAFFE9C0005E
FA6000320002D0003D
FEC0004C0001200029
F2800097FFEC8FFFA6
F7B000490002D0000A
F1A0004700012FFFB5
F300004600095000BC
FDDFFF15FFE830005C
EE5FFE6D00007FFFD2
016FFF9CFFFB4FFF74
1550004D0000BFFF9B
FF6FFFB7FFFAAFFF48
F7CFFFAE00047FFF64
02F0002FFFFCC0001B
007FFFCAFFF9DFFFB1
E70FFCDCFFF4600123
994FF9B9001B7FFFE8
D84FFFCD00022FFFE9
002FFFF1FFFF3FFF55
010FFFBCFFFC9000E8
8FF000BB00064FFFC9
CE80009100029FFFDA
DB4FFF9BFFE85FFFB3
8000008C0003300004
0130002F0001FFFF25
FE9000410000D00050
FF4FFFF6FFFEEFFFC1
F090007D0004BFFFC3
FF30000500022FFFA7
FE7FFFA10002DFFFF2
006000240002BFFE33
FF3000180002BFFD2B
003FFFCFFFFE6000E3
FE8FFFD1FFFEBFFF76
025FFEF2FFEAAFFFAA
00400109FFFA600072
FDDFFFAF000310000E
001FFF910002E00063
01BFFFD9FFFDCFFFB6
00BFFFCEFFFF50005E
036000F5FFFD50003B
E08FFF9BFFFF200002
002FFF71FFFA600028
DA3FFF600000300037
F44FFFB4001CF00147
B83000710003CFFFFE
923000BA00036FFFE9
005FFE2B0012E00070
00C0001800019FFFF4
FB4FFE990005D00079
0B8FFFA9FFFDDFFF39
D620003BFFFB100040
00EFFFF8FFF0500041
FFBFFFF0000620003A
02700197FFF89FFFE9
FF800005000690000C
008FFF89FFFDCFFFB0
F9500017FFF52FFFA2
001FFFE9000620002D
02EFFF77FFF4500005
017FFFDB00067FFFCD
009FFF8A0004BFFFEB
03A00046FFFF9FFF96
05700035FFFC2FFFA2
E2AFFFEA00085FFD1B
C4FFFFE00004A0006F
FBFFFFF9FFF5C00023
00FFFF740004100005
005FFE9500039FFFDD
045FFF5CFFFA0FFEAF
FD600013FFFBB00033
E55FFFD100030000E1
FA6FFF7AFFF98FFFB7
FA2FFF680004A00057
015FFFD6FFFA4FFF1D
FB4FFE990006EFFE48
FAAFFF40FF87DFFFA5
FEDFFFF5FFF0D00031
FFAFFFFB000520001F
029FFFB2FFFEBFFFEE
FF900026FFFE7FFFC8
E92FFF94FFFE800035
04E0003F0009400015
FE20000AFFF9FFFFEB
FBB00060FFFCBFFEA2
FDA000050001AFFFC7
FE8FFEACFFFCBFFF5A
FE6000020000AFFFC8
124FFE17FFF7EFFFC4
EBF00061FFF10FFF5B
12F0001800085FFFF5
FCB00061FFFC3FFF72
E70FFFFB000B000041
108FFD63FFFEA0002E
046FFFFE00065FFFEE
0200000E0005CFFFE6
FDB0001300094FFFF8
FE10001100036FFFEC
FF4000230011EFFFE5
AE2FFD0C0000900077
148FFDB7FFFF800035
0E6FFCD0FFF2D0000E
018FFFCEFFFC4FFFF1
FE200011FFFC8FFFFF
057FFBA3FFF8900069
07FFFF9C0000B00006
0C0FFFD8FFFE300037
DABFFF8B0002900025
F85FFF6A00152000A3
FBB00043FFFD0FFF1A
FD9000020001CFFFD6
B92FFCD3FFFA5000DE

