00000000011110000
11111111100111111
00000000000100001
11111111111001110
11111111010000000
00000001010010110
00000000000110011
00000000101000000
00000000101011010
11111111110000101
11111111110010100
11111111111111011
00000000001000011
00000000011001000
00000000000011011
00000000100001001
11111111111010111
11111111110010000
11111111011000001
00000000010001001
00000000101000010
00000000000111110
11111110110010000
00000000011011010
00000000000011111
00000000001110010
00000000101011001
11111110111111010
00000000111010111
00000000010010100
00000001001011100
11111111101110001
00000000111110101
00000001110110111
11111111110110011
00000000001101101
00000000010110011
00000000000101110
11111111111110011
00000000100010001
00000000011011110
11111111111001000
00000001000010101
00000001011110111
00000000011010001
00000000011000010
00000001011000111
11111111111001111
11111111111000001
11111111010011110
11111111100001010
00000000011001011
11111111101011100
00000000011111001
00000001000111101
11111111111000101
11111111011001011
00000000010001111
00000001111011010
11111111111111011
00000000000010010
11111110110011111
11111111001001101
00000000011001110
11111101010110011
11111110100011011
11111101101111101
00000000011001001
11111111001010110
00000001100001110
11111111010110000
11111111010010111
00000000000011001
11111101001100100
11111111001011110
11111110011100001
11111111101000010
11111111010010110
11111111001101000
00000000100110011
00000001001011111
00000000011100001
11111110001100001
00000000110011101
00000001010011100
00000000100110111
11111111100010011
00000001010110111
11111110101000000
00000001000100110
00000000111001001
00000000110011110
11111111101100010
11111111111000100
11111111101100001
11111111111111010
11111110000100010
11111110100010100
00000000001001011
11111111101111101
11111111101010000
00000001011110001
00000000111101010
11111111110010111
00000000010100110
11111111011111010
00000000000010110
11111110111100110
11111110011101101
11111111101101111
00000000110000001
00000000111110001
00000000111010101
11111110110010111
11111110111101111
11111111011000110
00000000100110001
11111110110111011
00000000010010000
11111111011101110
11111111011000000
00000000101110000
11111111111100011
00000001010111000
11111111111010000
11111110110110110
11111111101100001
00000000100110001
00000000000110010
00000000101000010
11111111100011111
00000001010110100
00000000011101000
11111111010000111
00000000010110001
00000000101100000
00000001010101100
11111111010000010
11111111111110100
11111111011010100
00000000101111000
00000000100100110
00000000010001011
11111111010010011
11111111011111100
00000000011101111
11111110100011010
00000000010111111
00000000011010111
00000000010111000
11111111010100110
11111111101000001
00000000001110011
11111111001111010
11111111100010001
11111111110101011
11111111000001100
00000000101101001
00000000111111111
11111111100101111
00000000000011000
11111111010011110
11111111001010111
00000001010010100
11111110101110100
00000000000000101
11111111101110011
11111111101000100
00000000010001001
00000000010010100
00000000010001000
00000000100110001
11111111111011101
11111111101000101
11111111011000101
11111111011011100
00000001000111101
00000001000001111
11111111011001110
00000001001000100
00000000010000000
00000000001011111
00000000101011111
00000000110101110
11111111100010101
00000000101110110
11111111101111000
11111111100100000
11111111011101100
11111111010110110
11111111000000100
00000000010010100
11111111111010100
00000001001110000
11111111010100000
11111111101011001
00000000100111011
11111111111011011
00000000111110111
00000000011100100
00000000100000011
00000000110011101
00000001001101011
00000001001011010
00000000011101011
11111111110101100
00000000100100010
11111111001011111
11111110110010010
11111110100101101
00000001001010100
00000001001111001
11111111001101011
00000000010100010
11111111111101110
00000000010100101
00000000011111011
00000001001111110
11111111101001010
00000000000001010
00000001100001000
11111111000011110
11111111101010100
11111110000000000
00000001001000000
00000000100111110
00000001011100111
11111111100111000
00000000011100010
11111111001000000
11111111100000101
11111111011111111
11111111100100101
00000000001111000
00000001000110000
00000000010111001
11111111111001000
00000000001011011
11111111111111101
00000000010110110
11111111011000010
00000000000001010
00000000001111100
00000001001110000
11111111001011011
00000000110111010
00000000010111000
11111111001111000
00000000100101011
11111111001110001
00000000010101010
11111111000100001
00000001001111110
11111111011100100
11111111011010110
11111111000001111
00000010000000100
00000000101100011
00000000010100001
00000000011000100
11111111110110111
11111111110000100
00000001001100000
00000001000110010
11111111111101001
00000000110010011
00000001000011110
11111101011011011
00000010010010101
11111100100000110
11111110100101100
11111111101000011
11111111111010010
00000001010101111
00000000001000111
11111111011101011
00000000100010101
00000001101110110
00000000011111000
11111111110000000
00000000101000100
11111111000100110
11111110110010011
11111110110110110
00000000101011000
00000001110111011
00000000111010111
11111101101111111
11111111001010001
11111110111101101
11111111111011011
00000001100000000
00000000100110011
00000000011110101
11111111000101000
11111110000101010
00000001011000101
11111110110001110
11111111000110011
11111101110111000
11111111101111001
00000000011000011
11111111010110101
11111111010010110
00000001000010101
00000001000100101
11111111110011001
11111111001110111
00000000111010100
00000001101100001
00000000101100100
00000001110001110
11111111000011010
00000001100111101
00000000000110001
00000000001011101
11111111111100101
00000000011011001
11111111101011010
00000000000101010
