00000001101011110
00000001100101001
00000001010011000
00000000001001000
00000000110100010
00000000000000000
11111111001111001
00000000111100101
00000000000000100
00000001110011101
00000000110100111
00000000100101010
00000000010111111
00000001100011001
00000001111101100
11111111111011101
00000000010001011
11111110111110111
00000000100011110
11111111101010111
00000000001110101
00000000111011001
00000000000110111
11111111011100001
00000001101110011
11111111111111010
00000000110111011
00000000001101111
00000000111001100
00000000100010100
00000001000000111
11111111111100110
