1EBC
1EC6
0060
1CF8
0051
1F0D
1EF9
010C
1EAF
1F8A
1E1C
0068
1D44
1F93
0005
1FF3
0316
1FB3
1EDF
0318
0150
1CFB
037A
1E8C
0265
0138
00C9
0013
00D7
1F9D
004C
0054
1F29
1E8B
02F4
01BF
008B
1E67
00B8
0059
1E2D
015E
0400
1DAD
01CF
003D
1E8F
1CA8
00C2
1E91
1E8A
1DB4
1CCE
026E
1E2C
0348
004B
1F8E
02B1
01C7
02AC
1F4E
1ECA
002D
1FA4
0110
038C
1FED
1EF2
1F4A
000C
1FD7
1D5F
0045
1E59
0017
015A
1FF2
1F05
00B2
01F4
1F25
1FA3
0097
1FD9
1DD9
0139
00B4
1EC1
1F61
0084
016C
008B
1F29
1DE0
1F37
1E65
1EEA
015B
1E27
1F3D
0035
1DCA
1C40
0051
01B5
1FF4
00B0
1F45
1EF9
1E2A
0204
000F
00A6
1E92
1E06
1E46
1D60
0182
1FDE
0135
000D
020D
0090
0047
03DC
1C07
1F83
008A
1F45
01E1
00DD
1FD6
02A9
1E6D
1F41
00B3
01EC
1FB9
1BF0
0243
00E9
1DE3
1FAB
1F30
02B8
0025
02B0
03E3
1E57
1F30
006F
1DDF
1F12
0358
1CF6
1FE7
1F3D
1F26
0056
1EBA
1FD1
0363
0352
1F79
1FC9
1F4F
0043
1E9E
1F90
1D85
0296
0255
00FA
1FCB
0366
0078
1DBD
1FCA
1BA0
1EC5
010F
011D
1EAF
1F28
0041
1F08
1FC8
00E5
1DD0
1FAE
0112
1EE8
04F5
1F78
1FCE
1E77
1FA5
01E7
1DE7
1F4D
0268
1F4F
1F4B
029A
1DEF
1FB8
1FA0
1D27
02C2
00B6
01AB
0291
1E01
00CB
1CA3
1E7C
010B
1EBF
0365
005A
0023
1949
1E4C
00B7
0017
00BC
1FC1
00D1
0092
1EFE
1E8F
1F3C
1F81
019E
1FDA
0179
00A5
1FEE
1F58
0067
00AD
1E99
1F98
1F62
012F
02E0
1EBD
004F
0050
00D6
004C
01FD
0022
0163
1DD2
1ED5
1F34
011F
1F01
024E
1F07
1F91
1E77
1EBB
0030
1E4B
00A6
0231
002B
1EA9
000D
0080
017D
01CF
008B
1D73
02B3
0348
01CF
01CA
0132
0107
0188
014A
1A38
02B9
0173
0012
1FC9
1F5D
028D
0272
1EB1
1FD8
00C1
0003
1C69
1FB4
0111
1C50
1FF0
0178
0012
1F78
1F25
0411
0292
0111
01B3
0195
01A2
1F57
012A
1DCF
00BF
1F4A
1D77
03B3
1EC9
1FF3
02A2
0077
1DF6
1F07
016D
1F57
015A
1E82
007B
1EF2
0139
0195
01E4
1F6F
1D6B
0152
01F8
0056
1D80
0386
1F1B
00C7
003B
0103
008B
1E65
008C
022A
01C2
1EBA
0088
027D
1DF4
0276
0194
1DC5
03B1
1F0C
1E59
0316
1FCC
1F08
1EBF
018D
00FF
1F73
02AC
008A
01F9
0095
1BAA
0239
1A6D
0285
037D
1F28
01A4
1F3C
0079
1C01
013C
0362
1C1B
0023
0172
1F9A
1E91
1E67
017F
0181
026B
1EBA
1F29
00B3
00CC
01E6
006A
007F
1EB8
0023
1F31
00FB
02EF
05C2
1E1E
1F7D
0099
021B
009B
012E
00BC
00D5
001A
1C48
1F68
0013
015B
1DA3
0026
0046
1EDF
0020
1F6A
02E3
0026
002B
1D15
00F1
035B
00AD
0093
1D21
0151
027F
0107
0083
1EF4
01AB
0156
1F37
1DF7
1FA9
0051
1F0A
001A
0058
1FBC
1DA0
1ECF
010E
017D
004C
1F2F
1F4F
1DEB
02F6
01DF
01C1
1DBD
0233
1FB7
018C
0080
0111
00EF
1FEB
1E98
01DD
1F03
1E1D
1F69
022C
01E8
03CF
1FD2
1E71
1FA1
1FC1
006B
01FE
1E69
1EEC
1DA8
1DF9
1FB9
1F87
0348
0327
00ED
0199
0171
1F4C
0043
003F
1C67
002C
1DAD
0040
052A
02C1
00CF
1D7D
00C1
00B2
1FC2
0187
1FB3
1FFC
1E29
02DE
1ED4
010B
1FBB
1FBB
00A4
015A
00D3
1FE2
01DD
0108
0109
1F80
1CBC
0073
0034
00C3
0149
0048
0098
015D
1C00
002B
0196
014F
1F7B
0050
1B77
0213
00FE
1FA3
00D1
04D2
1D81
015B
1F78
1DC7
1F46
1F76
0332
1CEA
1DF1
004E
1B1B
1FEC
01BB
0184
0191
01D1
008B
0199
002E
001D
1EB1
0419
1F15
0028
1AB8
1C65
1D36
046B
001F
027F
0087
029B
1F9E
1C3A
1F48
0127
1C6F
00BA
017E
1F59
1B69
0109
1CA2
0022
016B
0000
00ED
00E1
00E5
1F0D
1D1E
0248
1D85
010C
1EFC
0076
0248
0266
1ED8
1E64
01AD
0043
01E8
0269
1FEC
02BD
0017
0375
1E5C
1E2F
0162
1D11
0100
1C56
1DD4
0302
1FC0
0211
0027
1E2E
1FDD
0077
011A
1F28
0274
03BB
1EED
01D8
1F67
006A
1E6B
1C7B
1EA2
00F4
000E
008C
1FC2
1EF4
1FB7
0042
00DE
00BB
1EEC
0011
1E9C
0171
0052
0089
1EC2
00C3
1ED1
00CB
0014
008E
1FBF
1EE0
011C
1D36
1EF6
026E
0096
1D78
012B
1ECC
1FBB
1FCF
1E16
1DA3
1D93
01AB
0176
01CF
0064
0075
007A
1FDC
1FAD
00B7
1EF6
02CA
1FE2
010D
1EFA
1F29
1DFD
1F6B
008B
0076
0013
1EE8
1FD0
0192
1FAA
1F60
00F8
0038
1ECD
1F6D
02BA
03D0
0179
0100
1FAC
045A
1FBC
1FFC
1EC8
1EF7
0184
0001
0165
0328
1EE6
1F20
0150
1EE8
001C
0015
1FE1
1E88
0085
1F06
01CA
05C2
00F9
1F51
1EFE
02A0
0006
0257
1CC1
0051
00D0
1FE1
019C
0207
0182
00E7
1E3F
00BC
1F45
02C8
00D2
001A
00FB
1F69
1FE4
1EF7
1F43
1F27
01DE
0179
047A
1E7E
0168
048E
1D52
1FFD
1FAF
00C1
02AE
01F5
0070
0356
1F93
027E
1EEC
1F7B
1F15
1C17
001D
01FD
01CF
0114
1D63
1F32
1FA9
1E0B
004B
1F4C
1E2A
0097
021B
0138
025D
02E6
1BB3
1ECD
00AE
1FEF
000E
000F
1D15
00A1
1F42
1DBB
1DB3
009D
1FB7
1E26
1CE5
0157
1E22
00E6
00C6
1E3D
1F2C
0112
0041
0378
1FA0
0125
01D1
1F99
1C4E
02B5
1F85
01FF
03D9
022D
02EA
1FD6
1FED
0168
002C
00F0
0032
02D3
1E3A
004C
013A
1E50
1FFF
00C3
0065
1FE4
1FF4
1D8F
1F53
1D76
1F17
01B7
01A8
00B2
1E23
1F43
1CB4
0345
0104
00FA
1EFA
1D7B
02D4
00BC
02A4
1DB2
1F27
1FB5
1FBD
0023
1E97
0438
1F5A
0067
1E64
0304
0173
1E51
1E3A
0108
01CE
1E8D
0180
1F21
1DE2
00D6
00E6
01E0
036D
0083
1C65
1D42
045B
0478
002B
017A
1E36
0134
1E50
1DD0
0073
023A
00E0
1ED5
0076
1F0A
1EEE
01CD
1EFE
00A9
1F88
0005
1B31
006B
1F9E
0029
1DF3
00E2
1F1B
01C0
0151
0271
002D
00B9
1C76
028B
1D71
000C
00D4
1F1F
1D81
01F4
1DFA
0120
1EE3
0045
02D7
1DE4
1F68
1FB6
006B
00A9
0149
1FC9
1E87
01BB
1FA9
01FE
01F3
00A3
1FA5
0182
1E43
025B
1EED
1A47
1F1B
03F5
1EC3
1F9D
1F52
1F36
010F
1E6D
0004
0185
00FB
003A
012A
1E69
1F00
0248
009A
0013
1D95
1EDD
1CE1
1DED
003F
0271
1F25
1F7C
1F7D
02E6
1E31
1FEB
1F59
1CE0
1FBC
0244
1DB8
1FE2
008C
1F14
0050
00FC
0117
1F09
1E84
00DB
01E7
0156
018A
002B
1F85
1EC4
1DE2
0023
1FB3
014A
1F64
1EC5
1F7F
0259
1FB2
1E2E
0319
028B
1FF4
004F
1F7A
022D
0123
002C
0088
002C
018F
1EF7
01A0
1D9B
1F8F
00D1
1FA2
1F5E
021C
013E
011C
1FF7
021A
00A6
010B
1CAA
019D
0033
1EB6
018B
1F37
1BDA
1F81
01C6
0111
1F54
01FC
00BB
02F0
1E1C
00A7
1E37
008D
1E98
0106
02ED
0317
0000
1F4E
030C
1F62
0194
1EE3
0166
027E
1FC6
00C3
01A4
1E9F
1D27
0299
1EE5
1E6C
1B29
0395
0307
00BD
0299
0422
0228
1CFE
007D
003E
041F
00DC
0032
1E31
0318
1F24
008E
199F
1DA5
1F46
00AA
1E88
1FCE
018E
015A
03E9
01B2
1E0D
02B3
0278
017C
00B5
01A3
1C70
1EBD
0080
1FDA
0076
0379
039A
006B
1D01
1F41
0108
02B8
19F5
1EB5
1DB8
04D8
0170
1F0A
1F8B
00D1
1F47
00B7
1D62
05C8
1DDE
01DC
1E76
1FB0
01D8
011B
0057
1B65
0550
1E84
18B5
0561
1DFE
0149
01E1
026A
1E54
1FF4
002D
1DBB
1E53
1F21
1C31
003F
1F09
0034
1B42
0390
1FDA
0130
1F67
0264
1FE0
0010
02CC
1BA0
1F2D
0132
017B
00CD
0438
01A1
1D88
01BA
1ED1
0216
1F62
0020
031B
1E34
1F21
0121
0145
1F12
1CBF
0107
1E08
018E
001A
1EF4
1ED5
00DC
015F
1ED9
1E5C
022D
02B7
01D0
0011
1C8C
1C73
1FDF
1F8E
00EA
033C
1EFF
1F9A
00F1
1ADF
1DA2
0171
0213
1F5C
0016
1C80
028D
1F8B
1CC9
0241
1D7F
029C
008C
0182
1EBC
00B0
19D3
1E77
1B28
1EF1
02B5
0072
1E36
015D
01E3
1AD3
06FA
010B
02FF
01F2
1E56
0176
1F05
023D
1F91
1ED2
0213
0220
06FE
01A2
1F3F
02B5
1AD4
1EB7
0021
1DC5
1FB7
1F74
1FBB
1FF8
03BC
1D5C
1FAA
1D6F
1D4C
1EA9
1F95
0260
1BE3
02CA
1F4B
025F
01F3
0118
01A9
1F86
1FF5
008A
0152
1E3D
1DFD
011D
0166
1D7E
1D95
0197
0068
1F51
1E40
01CA
1DF5
02AF
1DA8
1EDF
1C07
015F
02A1
1DFE
1DA5
1A08
06B6
0416
04EC
1DDB
07EF
1D15
0059
0370
1F91
1D94
0332
0001
1F05
1CC1
1F36
0195
015F
00B5
0117
01B9
0133
015D
1E52
003E
02CE
1E84
0051
0192
00BC
1E47
04EA
0310
1EEA
1C81
02F2
1E9F
1D6B
02CD
0187
1F89
03EC
02E9
00B0
0001
1CB1
1C0E
1F91
013E
1FA8
0127
0169
0181
1F3C
012E
017D
1DA6
1E48
00B3
015A
0032
1EED
01C2
1FBD
0233
1F96
17C6
0378
1D7E
0237
1C1A
0334
1FEB
1FB8
0446
00C2
1F6C
00B7
1F61
1DF1
01D1
1E23
1CC3
03CD
02A1
009F
0063
04D3
1EAC
00BB
0185
0334
1F74
1FDC
1EBE
1F91
0789
1F3A
1BB0
000F
1D57
1E8E
0360
1FCC
1E6E
1F46
1FDA
002C
1F42
00A3
0006
1EEE
1F0B
01AE
00A7
1E20
1EEF
1CE3
1F5F
1ECC
1CE3
058A
04A7
0050
055E
0228
0083
1E71
1B86
0179
03CB
1E97
03FE
1F10
0020
1D36
1D57
02F0
0455
1FAB
1F6C
033D
0585
0481
0056
00F3
0041
0065
1BFF
01AC
1D00
1A91
030D
1D97
025F
1DDE
1FB3
1E46
1D8D
010D
01CE
027D
017B
1CD0
1FE8
0020
1F9E
1A89
1E98
0040
1D0B
1F4B
02F2
01C4
1C90
1C2F
0379
1F28
00EA
1BD6
00A4
1F39
1B9A
02A1
1E82
1CFE
006B
05B9
1F7D
0209
1D80
1EE0
00A4
0403
1CC7
04E5
18DD
03AB
002A
0480
000F
1F17
1FFC
010A
00A5
0004
1E77
1F5D
01A7
1BCC
0413
0071
1B57
0328
1F12
1C60
1B8B
030B
1FD8
01B2
01F1
01F7
0060
1A37
1E5D
1E83
1F70
0047
022D
1DB2
19E9
1D49
0176
1DBB
1FB0
1C8E
0099
0119
003E
1F78
1FAA
1D60
1B5D
000B
04E3
0147
03D7
1DF4
1C28
1FC8
023D
1DEE
1FB5
00A4
1C8E
0227
0103
1E32
039D
1E06
02BD
1E46
0031
023D
0151
1B43
1D41
002E
0404
0178
0610
00A1
026A
1EC9
1EE8
1E69
1FFD
1FCF
0208
010F
1E19
00B5
1F16
032C
01DD
009E
001B
02C8
0069
0091
0145
01A1
1EA7
1E74
1F72
0119
1E51
01BD
016C
00B2
0264
1F53
1E7F
1DFE
1FBA
1DD1
0083
010E
1E45
0285
1E18
0302
1ED6
0229
0352
0235
028E
0038
01E9
01B4
0169
1DAF
058F
02B1
0082
0581
1EF9
1EBE
1EE4
0014
0158
1EBF
1CB8
1D98
1FDF
1FB8
00B4
1EC1
1F01
1E73
1F5A
01A4
015B
1C5E
00EC
003E
0022
01E5
004B
02EF
1DB1
0024
01C1
0285
01A9
0187
1EDD
1FFE
008E
1E08
0083
024A
1F9F
0148
01EB
1F46
00DE
1DC0
02E7
01CB
1F2C
1F99
1E59
0533
1EFA
0123
1E70
1FC8
1E9B
025F
1FE8
0172
0045
0003
0082
1F01
02BB
1E43
02DD
1E2D
003F
1EA7
1EBC
00C9
1F19
1D80
0138
0279
00F8
0248
1FDF
1F33
1E50
0017
007C
1E31
1E49
1E62
0136
1FC0
00FF
0165
1FE2
1EEE
0139
002F
0235
0267
1FF5
02C9
1EBB
0416
1C19
1E8B
00E8
0474
0081
0177
1EFC
1E73
1F05
0099
1CE7
00D6
0156
011D
1FED
1F9D
01DD
0146
1FAA
0344
0030
01E3
1EBD
1F6A
02C8
1DC2
005E
1E84
1DCF
1E10
020E
0299
0207
1F90
1EA3
001A
1E86
00B5
001D
1D5D
1F97
0255
0179
028E
1EB1
1FB9
0182
1F40
003E
1C3A
1D85
003A
04DA
1F87
1F83
0091
03C5
1D5D
1EBB
1F9A
1FFA
01DC
008E
1EA0
0102
1D87
1CA5
0207
1FBE
1AF9
1F64
1ABA
0221
1D27
1E41
03D3
1D8E
018A
005F
009D
1F3F
1F33
008A
1FF5
0385
1E71
01BD
019D
03C2
1FAC
0037
1CFC
02DC
1C25
0296
1F2B
1FAC
1C55
0092
1EB9
007C
0202
0012
1F0C
1E58
1E70
0144
1E43
0022
1B31
02BD
1ED5
03B5
1F99
1F75
02E6
1CD9
020A
1F1B
0098
0063
1DD4
1DFD
1E5F
03D4
040B
00CD
04F5
04CC
054B
1E73
1F57
1FE1
1FDB
011E
1D86
022E
1FE6
0391
1C29
1DD4
1FB9
1CB5
1D5D
1D3D
0187
01D7
0326
1D06
006D
1E14
0056
0258
1F87
0194
1EAD
1DA1
1CDB
0144
01C3
00A4
1F59
1E6F
012A
007F
1F60
1F24
1A93
1E68
1F21
1EF5
0186
0146
02A8
1C3E
1F8D
1F95
1D31
1F4B
0211
00D7
1E9B
00B6
02A9
0157
0119
007A
04A9
04FA
0110
03A3
029C
1EA4
1CB0
0167
1E40
0015
00B8
0031
00B9
0073
02E8
1D4E
1FF2
1F53
1BF5
1F97
1D60
0111
1E24
00FD
1C42
05BF
1EDE
1FE8
1B90
028E
1BE2
1E47
1FB5
1ED2
1FA7
1FDD
0488
0250
0073
001D
00AA
1D0A
1FB7
1B4D
1EAD
1F97
00D1
026D
00AE
1CD6
1FCC
00D2
1D4C
05ED
1EC1
0338
028A
0489
1EE4
01D2
1D39
00E6
1D05
1DF7
1F27
1F51
00C9
0368
009B
1FDE
019D
1FC5
019E
1E39
017A
00F0
0416
0059
0086
0117
1EAD
02D8
1F18
0185
1DCF
1FD0
1EBF
0210
0110
0133
1C60
005C
02C2
1DE1
0000
1FBF
0113
00C3
0007
1F9E
00BD
002A
1D69
1F66
0337
1F84
1EEA
1E26
004B
1DDD
1F19
1F61
02F4
001B
01DE
0021
00FE
011A
002C
1DCE
045D
1B2D
1E4C
0021
078C
02DB
1F3A
01FE
1E61
1E8A
02C8
1D50
021E
1C15
1CA1
1F9B
1D8B
016E
1FE0
0173
008B
1FB5
01A8
007F
0135
1FFB
0182
03A9
1E98
0160
1E63
1E87
01BB
1E1A
006F
1FAD
1DB5
1EBE
1EE5
1F55
1D82
1D18
1FD9
1D5C
1FF8
017B
0087
1E68
012F
1FDA
0155
00B2
1F27
0372
1E8E
0414
1DD0
017E
1E30
0002
1F98
1F00
1FF3
0083
1FEF
0044
1F47
1FF0
0007
1F96
1EBD
1E66
1F75
00F0
0021
1F26
1CB7
0150
013A
0103
1FF0
1EE6
01FF
1EAD
1F77
0110
012E
1EF4
00FF
0089
002A
1FF7
001C
0112
00BB
005F
1FBF
1FE2
0064
1EF1
1F9D
000B
00CC
016B
0144
0056
1E79
008B
0068
1FDA
1EE9
1FCA
0082
0028
1F83
0039
0376
1F35
1FC5
1F10
1BDA
01D1
1E70
1F86
0170
1F81
00B3
1E0D
1FEC
0193
0054
1E2F
035D
1F72
1E97
1DD9
001E
1D92
0043
1E45
1E25
0202
1FFE
0112
1F89
009E
00B6
1ECA
1E91
1D51
1DCD
0153
1DDD
0144
1FCE
1F7B
1E96
0098
1DF1
1D8D
1C39
1F72
0040
0193
0088
1CFB
1F13
00A1
012E
1F7E
02AC
1D9D
1F50
004F
0170
1F6B
0128
1F96
001B
0136
1DD1
0046
1F61
003E
0211
1FBD
1E7D
018F
000F
1FA8
00CD
1E16
1FDF
1EC7
1F0D
008C
01FC
1FAE
1EFD
1FF2
015D
00F8
02B0
1D12
1EC9
1FDE
0197
002E
0105
1FB5
0064
1FF2
0186
1FC6
0065
1EA9
01AC
00FC
005C
1F4D
01B1
00F4
1E5B
00EC
1F66
1F7D
1EC9
1EDF
0016
0233
0186
1F29
0058
00BE
0205
1DF1
0057
1F5C
1ED1
037B
1EE5
1E10
1F29
1FCA
0028
1F5A
0092
1F6E
1E25
02BA
1FE6
1E83
1FA9
004A
004D
1FDF
008B
003F
00FF
0082
1FB8
0039
0108
1EE3
003A
0189
02CA
0158
1D6A
1F23
1FD7
0100
1F1E
1E8B
0132
1EDD
01C3
00A2
1F8A
00A2
1DCD
016D
1E4D
00A7
1E63
1C09
01F2
1E60
1DF8
01FD
0261
1F7A
1F59
0125
1FD0
1EE1
00C7
1E22
021F
1ECD
1DE3
008E
0160
0050
1E6A
1FB3
1F47
0010
00A1
017A
005B
1DE1
0075
1EA7
0114
1ECB
1E50
01CC
1DF5
023C
001A
1FAF
0030
1EE8
1FBA
1F98
0180
00E4
1D62
018A
1F1A
033C
022C
1E3E
1FDD
0068
0035
1F51
000B
1F03
1E92
1F40
1DCB
01AE
035D
1E30
1EC9
00FB
1F5E
0094
1F6B
0143
0045
0153
1E05
0130
0174
008B
0009
1FCD
008D
1F63
1ED2
0015
1FBB
1FBD
1FCC
1F03
0093
00C6
0092
1EFC
02A7
0068
1E01
00F0
01F3
1E29
1EE4
1F78
0158
1FB1
00AA
01F4
0133
1F52
1F7A
0141
1E47
01AD
1E5F
0095
002D
0131
001B
029B
001A
0115
1D26
00EB
1FBD
00D1
00FA
008F
1F38
1D7B
1FD6
1ECC
00B5
00D7
0118
00B0
1F69
00FC
1FEF
015E
0294
000C
0181
1FC0
1F44
1E68
0018
0016
005B
02A1
1CFB
01F5
0222
0098
0109
1F07
00D2
1E85
014F
011E
00A6
0345
1F2C
1EF5
1F0E
1F0C
002F
1F0D
025C
00EA
004D
1FCD
1EF1
0113
1D7A
027D
0181
00AB
02F3
00D8
1DF9
01A2
0119
0251
0206
1EDA
1EE9
1E9B
000F
0083
0174
1FDA
0253
000A
0061
01DC
02E8
1A5A
1DD2
1E5D
021E
1FAC
1FA4
00CF
0004
1CBC
0242
1F12
0193
1D69
0262
0151
1F2C
0103
1F01
0067
0075
00F3
018E
1E29
1EFF
1D99
01BA
0178
0276
01D3
0057
1F46
1F34
01FE
0185
1F31
1EB0
1F94
015B
1EE3
0262
0009
1E3A
1F63
00D2
02D2
1EA4
1F03
1FE9
1F99
1F01
014E
1EFB
0143
1ED0
00AA
0027
1F6A
0055
1F83
01EB
1DFA
0052
009F
011E
0060
1EE9
1F0C
1FA3
1F32
020A
1F14
0068
1FFC
1F0D
1F9A
016D
006F
024B
1FD3
01C6
1F32
0029
1E3B
1DFB
1FD4
0104
002C
01BD
002D
1F3D
013F
009B
0007
1EEC
006D
1DD7
1FEB
002F
02F5
1FD4
1F24
001F
0270
0035
1F04
1F87
0021
001C
1F16
1DA3
039F
1E06
1D10
00A4
1D5F
1EFF
00B2
0121
011E
1EEC
1FF9
010A
0055
1C97
00A6
1EF2
0029
1EE5
026E
1DF7
1ED9
0068
0030
1F35
00E0
1FC8
1EFD
1FD7
1FC2
0056
1DFA
1F24
1C6A
023C
00F2
016F
1E50
016D
0220
0111
016A
1F79
014C
015B
1EE2
1DDF
1C5E
00C0
026A
1EFF
1F89
1F45
00BF
005C
1FFF
1FCF
1E37
1F34
1F3B
00EC
0016
1FE5
0020
1F1F
1EE8
0108
0308
0162
00D0
0045
0072
0113
1F80
1E4F
0065
1FDA
1F8C
1EF7
0067
00C2
1EFD
1DAD
0107
1FFF
1F2F
1FB0
0163
003E
1F76
1ECD
0030
007D
1FFE
1FFF
1FFF
0006
1F5A
0146
1DFE
03B9
1AC7
0074
020E
0179
1F20
1F97
00E4
1F43
007A
1EE7
1EFD
0017
010A
0010
00F1
1F61
000F
1FAD
003D
00F0
1F2F
012F
1F17
006B
00C5
1FA9
1FE2
00A4
1FF5
1F1F
1FBE
1D4B
02D9
1FC8
0069
001B
001F
0146
003A
0063
1F71
0085
01FB
1EB7
1A64
0169
1FDE
0033
0104
0102
1EB3
0098
1F32
005C
04D6
01D8
0094
0146
1E95
012A
0025
027F
003A
0141
1DFF
0151
1FC2
0306
013F
1FF8
1F69
008C
0151
1BD3
01BD
00AB
00FB
00B8
1EF1
1E4C
01B9
1FD0
0231
020E
0265
00F4
0069
0210
0139
1DA3
1EAF
018F
1F4A
1E94
1E9D
1CAD
1DF7
1FDD
0126
01F9
1DBC
030A
00DB
0042
1FB6
0063
0156
007E
0024
1E65
1E56
00D3
00DA
008D
1F94
0128
1FCF
001C
1E50
0125
1FDC
1F64
0199
02A5
0077
1DDC
0237
1EDD
1FA7
022B
1D42
1FF6
009B
1FE5
1FFB
1F1A
022B
0195
1E26
1EFC
0085
1F70
1FC5
0021
0146
1F63
1F1D
00AF
0189
0075
1F89
1F35
0040
0154
1EA7
1FB1
0082
0235
010C
0010
1D89
1F34
1FF9
1E5F
0277
1E75
1D71
00E6
016F
0009
1EAE
02B8
1EE2
01CD
00B7
1FF5
1FF4
1EA5
017C
1E16
01E2
00E2
1EDE
1FB1
008E
1FB8
1F51
1F8C
1DE5
0002
00E4
1EE4
00A3
00C5
00C0
1DE5
0086
0084
00AD
00EE
1E2D
1F21
1E3F
1FB3
1EE7
004A
1E68
007C
00D5
0015
0007
017B
00E6
1F63
1C6D
0038
0271
1E05
1EA7
0026
009E
1FE7
00D1
00D9
007B
0401
002B
1F76
1ECF
1F55
0298
1F67
0026
1F95
0135
1DAE
00BF
1DE7
1F31
00BA
1FEB
0136
1F82
1D9B
1F3D
0107
02CD
0037
02C9
1F06
0080
0206
1F38
1F4B
00E6
00A7
0037
1F0A
1F3B
02DB
011C
1E23
0126
010F
1FFA
1FCA
0082
1F55
0061
1DB1
0136
000C
1F41
0004
1F25
0019
1DFD
1CA0
0172
0039
1F83
1FC1
1F0F
00DA
0070
1FEE
1F67
0301
1C88
1B7F
016C
1F96
011E
1D70
1F6B
1FDB
0195
00D2
1C78
000D
1F49
01BC
1F12
1EE8
0079
010C
018F
1EDB
00E1
1DCA
0289
1F3D
1F75
1EEE
1F0E
0253
1E02
1FD7
00FF
1F1F
00D2
1F6B
0249
1F3D
00C3
1E2C
1F08
1EF3
00FF
036D
0063
1E51
0045
1E20
1FDA
1EC4
00CF
0115
1EF6
008B
1FD4
1EDF
00B8
00B3
1FD8
1FC3
0103
014B
0077
0006
00BB
00E2
1F47
1F24
0024
0008
1EA5
1E8E
012D
1E78
0073
1FEB
0199

