8D
65
03
41
F7
D6
4E
8D
65
03
41
F7
D6
4E
8D
65
03
41
F7
D6
4E
8D
65
03
41
F7
D6
4E
8D
65
03
41
F7
D6
4E
8D
65
03
41
F7
D6
4E
8D
65
03
41
F7
D6
4E
8D
65
03
41
F7
D6
4E
8D
65
03
41
F7
D6
4E
8D
65
03
41
F7
D6
4E
8D
65
03
41
F7
D6
4E
8D
65
03
41
F7
D6
4E
8D
65
03
41
F7
D6
4E
8D
65
03
41
F7
D6
4E
8D
65
03
41
F7
D6
4E
8D
65
03
41
F7
D6
4E
8D
65
03
41
F7
D6
4E
8D
65
03
41
F7
D6
4E
8D
65
03
41
F7
D6
4E
8D
65
03
41
F7
D6
4E
8D
65
03
41
F7
D6
4E
8D
65
03
41
F7
D6
4E
8D
65
03
41
F7
D6
4E
8D
65
03
41
F7
D6
4E
8D
65
03
41
F7
D6
4E
8D
65
03
41
F7
D6
4E
8D
65
03
41
F7
D6
4E
8D
65
03
41
F7
D6
4E
8D
65
03
41
F7
D6
4E
8D
65
03
41
F7
D6
4E
8D
65
03
41
F7
D6
4E
8D
65
03
41
F7
D6
4E
8D
65
03
41
F7
D6
4E
8D
65
03
41
F7
D6
4E
8D
65
03
41
F7
D6
4E
8D
65
03
41
F7
D6
4E
8D
65
03
41
F7
D6
4E
8D
65
03
41
F7
D6
4E
8D
65
03
41
F7
D6
4E
8D
65
03
41
F7
D6
4E
8D
65
03
41
F7
D6
4E
8D
65
03
41
F7
D6
4E
8D
65
03
41
F7
D6
4E
8D
65
03
41
F7
D6
4E
8D
65
03
41
F7
D6
4E
8D
65
03
41
F7
D6
4E
8D
65
03
41
F7
D6
4E
8D
65
03
41
F7
D6
4E
8D
65
03
41
F7
D6
4E
8D
65
03
41
F7
D6
4E
8D
65
03
41
F7
D6
4E
8D
65
03
41
F7
D6
4E
8D
65
03
41
F7
D6
4E
8D
65
03
41
F7
D6
4E
8D
65
03
41
F7
D6
4E
8D
65
03
41
F7
D6
4E
8D
65
03
41
F7
D6
4E
8D
65
03
41
F7
D6
4E
8D
65
03
41
F7
D6
4E
8D
65
03
41
F7
D6
4E
8D
65
03
41
F7
D6
4E
8D
65
03
41
F7
D6
4E
8D
65
03
41
F7
D6
4E
8D
65
03
41
F7
D6
4E
8D
65
03
41
F7
D6
4E
8D
65
03
41
F7
D6
4E
8D
65
03
41
F7
D6
4E
8D
65
03
41
F7
D6
4E
8D
65
03
41
F7
D6
4E
8D
65
03
41
F7
D6
4E
8D
65
03
41
F7
D6
4E
8D
65
03
41
F7
D6
4E
8D
65
03
41
F7
D6
4E
8D
65
03
41
F7
D6
4E
8D
65
03
41
F7
D6
4E
8D
65
03
41
F7
D6
4E
8D
65
03
41
F7
D6
4E
8D
65
03
41
F7
D6
4E
8D
65
03
41
F7
D6
4E
8D
65
03
41
F7
D6
4E
8D
65
03
41
F7
D6
4E
8D
65
03
41
F7
D6
4E
8D
65
03
41
F7
D6
4E
8D
65
03
41
F7
D6
4E
8D
65
03
41
F7
D6
4E
8D
65
03
41
F7
D6
4E
8D
65
03
41
F7
D6
4E
8D
65
03
41
F7
D6
4E
8D
65
03
41
F7
D6
4E
8D
65
03
41
F7
D6
4E
8D
65
03
41
F7
D6
4E
8D
65
03
41
F7
D6
4E
8D
65
03
41
F7
D6
4E
8D
65
03
41
F7
D6
4E
8D
65
03
41
F7
D6
4E
8D
65
03
41
F7
D6
4E
8D
65
03
41
F7
D6
4E
8D
65
03
41
F7
D6
4E
8D
65
03
41
F7
D6
4E
8D
65
03
41
F7
D6
4E
8D
65
03
41
F7
D6
4E
8D
65
03
41
F7
D6
4E
8D
65
03
41
F7
D6
4E
8D
65
03
41
F7
D6
4E
8D
65
03
41
F7
D6
4E
8D
65
03
41
F7
D6
4E
8D
65
03
41
F7
D6
4E
8D
65
03
41
F7
D6
4E
8D
65
03
41
F7
D6
4E
8D
65
03
41
F7
D6
4E
8D
65
03
41
F7
D6
4E
8D
65
03
41
F7
D6
4E
8D
65
03
41
F7
D6
4E
8D
65
03
41
F7
D6
4E
8D
65
03
41
F7
D6
4E
8D
65
03
41
F7
D6
4E
8D
65
03
41
F7
D6
4E
8D
65
03
41
F7
D6
4E
8D
65
03
41
F7
D6
4E
8D
65
03
41
F7
D6
4E
8D
65
03
41
F7
D6
4E
8D
65
03
41
F7
D6
4E
8D
65
03
41
F7
D6
4E
8D
65
03
41
F7
D6
4E
8D
65
03
41
F7
D6
4E
8D
65
03
41
F7
D6
4E
8D
65
03
41
F7
D6
4E
8D
65
03
41
F7
D6
4E
8D
65
03
41
F7
D6
4E
8D
65
03
41
F7
D6
4E
8D
65
03
41
F7
D6
4E
8D
65
03
41
F7
D6
4E
8D
65
03
41
F7
D6
4E
8D
65
03
41
F7
D6
4E
8D
65
03
41
F7
D6
4E
8D
65
03
41
F7
D6
4E
8D
65
03
41
F7
D6
4E
8D
65
03
41
F7
D6
4E
8D
65
03
41
F7
D6
4E
8D
65
03
41
F7
D6
4E
8D
65
03
41
F7
D6
4E
8D
65
03
41
F7
D6
4E
8D
65
03
41
F7
D6
4E
8D
65
03
41
F7
D6
4E
8D
65
03
41
F7
D6
4E
8D
65
03
41
F7
D6
4E
8D
65