A0
30
C0
A0
30
C0
A0
30
C0
A0
30
C0
A0
30
C0
A0
30
C0
A0
30
C0
A0
30
C0
A0
30
C0
A0
30
C0
A0
30
C0
A0
30
C0
A0
30
C0
A0
30
C0
A0
30
C0
A0
30
C0
A0
30
C0
A0
30
C0
A0
30
C0
A0
30
C0
A0
30
C0
A0
30
C0
A0
30
C0
A0
30
C0
A0
30
C0
A0
30
C0
A0
30
C0
A0
30
C0
A0
30
C0
A0
30
C0
A0
30
C0
A0
30
C0
A0
30
C0
A0
30
C0
A0
30
C0
A0
30
C0
A0
30
C0
A0
30
C0
A0
30
C0
A0
30
C0
A0
30
C0
A0
30
C0
A0
30
C0
A0
30
C0
A0
30
C0
A0
30
C0
A0
30
C0
A0
30
C0
A0
30
C0
A0
30
C0
A0
30
C0
A0
30
C0
A0
30
C0
A0
30
C0
A0
30
C0
A0
30
C0
A0
30
C0
A0
30
C0
A0
30
C0
A0
30
C0
A0
30
C0
A0
30
C0
A0
30
C0
A0
30
C0
A0
30
C0
A0
30
C0
A0
30
C0
A0
30
C0
A0
30
C0
A0
30
C0
A0
30
C0
A0
30
C0
A0
30
C0
A0
30
C0
A0
30
C0
A0
30
C0
A0
30
C0
A0
30
C0
A0
30
C0
A0
30
C0
A0
30
C0
A0
30
C0
A0
30
C0
A0
30
C0
A0
30
C0
A0
30
C0
A0
30
C0
A0
30
C0
A0
30
C0
A0
30
C0
A0
30
C0
A0
30
C0
A0
30
C0
A0
30
C0
A0
30
C0
A0
30
C0
A0
30
C0
A0
30
C0
A0
30
C0
A0
30
C0
A0
30
C0
A0
30
C0
A0
30
C0
A0
30
C0
A0
30
C0
A0
30
C0
A0
30
C0
A0
30
C0
A0
30
C0
A0
30
C0
A0
30
C0
A0
30
C0
A0
30
C0
A0
30
C0
A0
30
C0
A0
30
C0
A0
30
C0
A0
30
C0
A0
30
C0
A0
30
C0
A0
30
C0
A0
30
C0
A0
30
C0
A0
30
C0
A0
30
C0
A0
30
C0
A0
30
C0
A0
30
C0
A0
30
C0
A0
30
C0
A0
30
C0
A0
30
C0
A0
30
C0
A0
30
C0
A0
30
C0
A0
30
C0
A0
30
C0
A0
30
C0
A0
30
C0
A0
30
C0
A0
30
C0
A0
30
C0
A0
30
C0
A0
30
C0
A0
30
C0
A0
30
C0
A0
30
C0
A0
30
C0
A0
30
C0
A0
30
C0
A0
30
C0
A0
30
C0
A0
30
C0
A0
30
C0
A0
30
C0
A0
30
C0
A0
30
C0
A0
30
C0
A0
30
C0
A0
30
C0
A0
30
C0
A0
30
C0
A0
30
C0
A0
30
C0
A0
30
C0
A0
30
C0
A0
30
C0
A0
30
C0
A0
30
C0
A0
30
C0
A0
30
C0
A0
30
C0
A0
30
C0
A0
30
C0
A0
30
C0
A0
30
C0
A0
30
C0
A0
30
C0
A0
30
C0
A0
30
C0
A0
30
C0
A0
30
C0
A0
30
C0
A0
30
C0
A0
30
C0
A0
30
C0
A0
30
C0
A0
30
C0
A0
30
C0
A0
30
C0
A0
30
C0
A0
30
C0
A0
30
C0
A0
30
C0
A0
30
C0
A0
30
C0
A0
30
C0
A0
30
C0
A0
30
C0
A0
30
C0
A0
30
C0
A0
30
C0
A0
30
C0
A0
30
C0
A0
30
C0
A0
30
C0
A0
30
C0
A0
30
C0
A0
30
C0
A0
30
C0
A0
30
C0
A0
30
C0
A0
30
C0
A0
30
C0
A0
30
C0
A0
30
C0
A0
30
C0
A0
30
C0
A0
30
C0
A0
30
C0
A0
30
C0
A0
30
C0
A0
30
C0
A0
30
C0
A0
30
C0
A0
30
C0
A0
30
C0
A0
30
C0
A0
30
C0
A0
30
C0
A0
30
C0
A0
30
C0
A0
30
C0
A0
30
C0
A0
30
C0
A0
30
C0
A0
30
C0
A0
30
C0
A0
30
C0
A0
30
C0
A0
30
C0
A0
30
C0
A0
30
C0
A0
30
C0
A0
30
C0
A0
30
C0
A0
30
C0
A0
30
C0
A0
30
C0
A0
30
C0
A0
30
C0
A0
30
C0
A0
30
C0
A0
30
C0
A0
30
C0
A0
30
C0
A0
30
C0
A0
30
C0
A0
30
C0
A0
30
C0
A0
30
C0
A0
30
C0
A0
30
C0
A0
30
C0
A0
30
C0
A0
30
C0
A0
30
C0
A0
30
C0
A0
30
C0
A0
30
C0
A0
30
C0
A0
30
C0
A0
30
C0
A0
30
C0
A0
30
C0
A0
30
C0
A0
30
C0
A0
30
C0
A0
30
C0
A0
30
C0
A0
30
C0
A0
30
C0
A0
30
C0
A0
30
C0
A0
30
C0
A0
30
C0
A0
30
C0
A0
30
C0
A0
30
C0
A0
30
C0
A0
30
C0
A0
30
C0
A0
30
C0
A0
30
C0
A0
30
C0
A0
30
C0
A0
30
C0
A0
30
C0
A0
30
C0
A0
30
C0
A0
30
C0
A0
30
C0
A0
30
C0
A0
30
C0
A0
30
C0
A0
30
C0
A0
30
C0
A0
30
C0
A0
30
C0
A0
30
C0
A0
30
C0
A0
30
C0
A0
30
C0
A0
30
C0
A0
30
C0
A0
30
C0
A0
30
C0
A0
30
C0
A0
30
C0
A0
30
C0
A0
30
C0
A0
30
C0
A0
30
C0
A0
30
C0
A0
30
C0
A0
30
C0
A0
30
C0
A0
30
C0
A0
30
C0
A0
30
C0
A0
30
C0
A0
30
C0
A0
30
C0
A0
30
C0
A0
30
C0
A0
30
C0
A0
30
C0
A0
30
C0
A0
30
C0
A0
30
C0
A0
30
C0
A0